/**
  ******************************************************************************
  * @file    ai4i_data_params.c
  * @author  AST Embedded Analytics Research Platform
  * @date    2025-03-23T16:47:07+0100
  * @brief   AI Tool Automatic Code Generator for Embedded NN computing
  ******************************************************************************
  * Copyright (c) 2025 STMicroelectronics.
  * All rights reserved.
  *
  * This software is licensed under terms that can be found in the LICENSE file
  * in the root directory of this software component.
  * If no LICENSE file comes with this software, it is provided AS-IS.
  ******************************************************************************
  */

#include "ai4i_data_params.h"


/**  Activations Section  ****************************************************/
ai_handle g_ai4i_activations_table[1 + 2] = {
  AI_HANDLE_PTR(AI_MAGIC_MARKER),
  AI_HANDLE_PTR(NULL),
  AI_HANDLE_PTR(AI_MAGIC_MARKER),
};




/**  Weights Section  ********************************************************/
AI_ALIGNED(32)
const ai_u64 s_ai4i_weights_array_u64[5699] = {
  0xb4d8fde4bb0584ffU, 0xbba5feeb35becd10U, 0x30d4c38009aea7bfU, 0xbc18787fbc72633fU,
  0xbc5e0c86bc1aae56U, 0xa0d18a7bad370c0U, 0x3b68b6643c354f8bU, 0x3dd86ea23c0197c8U,
  0x3c2c2778bc7b79e6U, 0xbce9a39f3d3d239fU, 0xbe259cbcbd0bba5fU, 0x3ca3b2eebcace91cU,
  0x3d1343cebc08ca9eU, 0xbcced3283d3579b6U, 0xbc86813ebbab1926U, 0x3ce9743ebe045aedU,
  0x3d1fd916bcb7f8adU, 0xbc1ecff63d06cd81U, 0xbc19d642bc56e1d7U, 0xbcbe155abc1bfca5U,
  0x3cb590d4ba4941a2U, 0xbb0e1db93b2cbc20U, 0xbd493513bb50f443U, 0x389a226bb03c4ec1U,
  0x3be7e8f23bc9558aU, 0x3dd856273c2fc61aU, 0x3c357761bcb43973U, 0x3a45b47a3b40ec3eU,
  0x3e47805e3c75e8e7U, 0xbd47b359bd30ada4U, 0xbd8234dfbd4aa51aU, 0x3e235d563d993ea3U,
  0xbd61fc313ca1aec1U, 0xbd17be62bc895f8dU, 0x3c62b259bd138d15U, 0xbd501749bb7934ccU,
  0xbe06d2dfbddf5b8eU, 0x3d8c3418be1932f0U, 0xbcc713e1bc130909U, 0x3afd56de3c96dc0bU,
  0xbc8495e53a9e21d5U, 0x3d1cd7cabc8a6b8aU, 0x3c00ea493b646c0cU, 0x3e354a393d022a53U,
  0x3b024fe6bcba35e0U, 0xbcbf710d3d36f2c7U, 0xbe20c3bbbcf7c564U, 0x3c003426bc8b290dU,
  0x3be18883ba4fc2b6U, 0x3e0731053c8e53eeU, 0xbd2066503bfcb3f8U, 0xb9e2dacfbbca7599U,
  0xbbfeaf113ab9b01aU, 0xbb623a10b2e2adf3U, 0xbc8ed10ebdf6ed20U, 0x3dfd5a813b3fcf0aU,
  0x3ca2a27dbcd3d2f1U, 0x89c2dfcd07116268U, 0x88d18e520996d582U, 0x9d8401d0900a743U,
  0xbd3d03c23d300943U, 0xbe0548d2bd36625eU, 0x3bd10d26bcd474c2U, 0xbccabe9abadba851U,
  0x3cb341533bca91f0U, 0x3e810bf73e3ee9a2U, 0x3daee4c5bcc899d6U, 0x3cd6bd553e2f642dU,
  0x3bb60e88bb29ff80U, 0xbd0fab3d3d0cbf5dU, 0xbda375c0bd2223aaU, 0xbb6208ffbcdcb211U,
  0x3b706e13baa615c9U, 0x3e24842f3c50fc9eU, 0xbda64df1bd7490cfU, 0xbd21fea2be06a086U,
  0x3d8c162bbd556800U, 0xbcba2dbe3d8113f6U, 0x394b16f4bd85eca8U, 0x3e0710233c41acf4U,
  0x3d0ed5033bdd1961U, 0xba75e401bc4e7db5U, 0xbc0174a9ba86a104U, 0xb5b920d7aa78ca18U,
  0x879b455909bb2094U, 0x90c1f63a07e3a1f8U, 0x8a6f434309e96bf0U, 0xbb6aa6fb3983235fU,
  0x3e3f2c7d3c38ce08U, 0xbc1dad60bcaf5219U, 0xbc28f3e5bcbc22b6U, 0xbaedbdd6bc246678U,
  0x3bbb0499b94a6cf0U, 0xbda4cf323d1a3fe8U, 0xbe05a0d83d7c49ffU, 0x3cb8e9d7bd036db5U,
  0x3a6a5eb83c3cdc95U, 0x3d79239c3ba3c824U, 0x3d784de83bd7462cU, 0xb3e730fbbc27be7cU,
  0xba57de19b433467fU, 0xafa5f99f8d7eb1c6U, 0xbcd8b29fbdc0c460U, 0x3dd0bd053bb2a466U,
  0x3ce436f3bcfb673aU, 0x3ba5554ebcf30f5aU, 0x3cd79b543bc36b1dU, 0x3a27eef7bd5d68a1U,
  0xbc8649b5bdefa527U, 0x3df08cf5bc127f9aU, 0x3c86bed6bd0e9a31U, 0x3c1ac1f13b807adeU,
  0x3e3ec00d3cc7baa2U, 0xbd62d1d8bd8f47baU, 0x3c0ed9613b42f842U, 0x3dda863e3c8b304dU,
  0x3cf3d36ebd19405dU, 0xbc901cde3d7ff1c6U, 0xbe0421f6bcc0ff6aU, 0x3ba7b25abc158167U,
  0x3c955d3abc1b443aU, 0xbd003c6f3c907314U, 0xbc0b7533b90796c0U, 0x3aa6c46e3aa3b240U,
  0x3e37924e3cd8133fU, 0xba728008bcf05cc3U, 0x3c72e31b3b1a1bb2U, 0x3d66e220bc5af2e8U,
  0xbe5d0e6abd40a49aU, 0x3e4cfc1e3891ce85U, 0xbd0461d33e0a2ec9U, 0xbcf82f87bf32d336U,
  0xbd8a2c6fbcc1be71U, 0x3b45cc673cbb4b6fU, 0xbbaa1df6b8ac539cU, 0x3e221405bd58e345U,
  0x3da3ef693e0e1b36U, 0xbcb4b7133cf217f4U, 0x3cd2d6c03cf0422bU, 0xbd15281c3ce53394U,
  0x3ce3780d3b778508U, 0x3d8318c2bb0bb611U, 0xbd2a00403e1c4766U, 0xbd14b925beca7fedU,
  0xacc9c937bb9ca4b4U, 0xb974f086ad5ab04fU, 0x88b62f1a8996db45U, 0xbc09fd26bd0da847U,
  0x3d88c994bb641d74U, 0x3d0c087d3c7785d7U, 0x3e07180eba5bf660U, 0xbcef04ee3e3a5d6fU,
  0xbcec015fbf25de57U, 0x3d2933acbd23923cU, 0x3df7b5f1bad56897U, 0xbd7eb9333c8ab44cU,
  0x3c333040bb6b4f9aU, 0x3dbaaff03c1c1ccfU, 0x3d871443bc2f8236U, 0x9bf7a66bc70b4f9U,
  0xbafed91e8a26846fU, 0xba3c75e92e328782U, 0xb74d37bbbb3a6de2U, 0xbb2822afb7850c85U,
  0xb485c931a6c7029aU, 0xbc86aefc3d69854dU, 0xbdbdeedabcaca99cU, 0x3b76a9febc66440cU,
  0x3c6ca7f03a6eeca8U, 0x3e302f633d046eabU, 0xbc86f228bcf63b25U, 0xbcd751363cd05f50U,
  0xbd3421eebcc67cceU, 0x3cfb186dbd074f4dU, 0x3c69dc31bb6be981U, 0xbc8df1fc3ce1deb0U,
  0xbd1d0ccfbc5989ddU, 0x3bad11b03a8bcd45U, 0x3e2b512d3ca699d2U, 0xbcc12e4dbd110cadU,
  0x3dabdcaebde11d9cU, 0x3cc0555ebdf811c9U, 0x3d6ca5db3d6ee6dfU, 0xbd0dd8d83d431e2aU,
  0xbe1a876ebcc6bb90U, 0x3c6cc0c9bc94f64dU, 0x3ac041f4b95d9f18U, 0x3c5e85693d0e9dfdU,
  0x3e8f8d893def0610U, 0xbc8d9779bb6a869eU, 0x3cca55243c9dddbaU, 0x3e8d69753e479bceU,
  0xbdc88f75bd4506c0U, 0x3e37cb493ba7892cU, 0xbd2a9ec73c956a24U, 0x9b8d16689e477adU,
  0x88bcdf3608d1051aU, 0x98839cd099eb7acU, 0x3ccf76aabdea25abU, 0x3cebf993bd6fa0d4U,
  0x3d20c0543db8b607U, 0x3be745153bea573eU, 0x3d5535223cbd0dceU, 0x3d0f97203ca6eed9U,
  0xbb728e863ba31b23U, 0x3e431c9f3cae1445U, 0xbc97a038bc7d2470U, 0x3d8a44f6bb8df344U,
  0xbd2387f33e130bb2U, 0xbc9717edbeedcf9fU, 0x3cb9b89fbdc48966U, 0x3db1cfc9bc9bed3dU,
  0x3d484edabd0414c8U, 0xbd78df05b92b5f3eU, 0x3c1a1fe23c6c0d88U, 0x3ea0a9123ea42054U,
  0xbd8303f33d4f1ecdU, 0xbe221016bccfa28cU, 0x3cf6d9abbcb030edU, 0x3b9aa3093c568d17U,
  0x3da838ed3c1850d8U, 0x3c6d4339bab9efebU, 0x3334074fbb2b4c12U, 0xbb5d680fb1f81c6dU,
  0x2e55799909be5deeU, 0x390446c9ab208027U, 0xbc5e706a39211819U, 0x370008b51d1b223fU,
  0xbc769a4e3918ce95U, 0x3c1b49da3d18bb87U, 0x3eb1a5f83e55d648U, 0x3c4f04c13bfaca68U,
  0x3c9e4f313ca4d295U, 0x3ddd3b9a3c858606U, 0xbc1c48adb981c3ffU, 0xbbd2e6933cac7f22U,
  0x3e959b123dded45cU, 0xbd66ead93d505f9aU, 0xbdaeb266bd5f3da2U, 0x3bf6665abcac6111U,
  0x3c2602823c033277U, 0x3df4ddca3c9e6144U, 0xbc43ca99bc72fdd5U, 0x3d19adecbdaaa465U,
  0x3d85b1e23d348196U, 0x3d53816fbcaa37deU, 0x9b14b577bae12304U, 0xba97f03309a3a9e8U,
  0x31832cbab080acf2U, 0xbd1770eab8a9786fU, 0x3cb2aa1c3dcdec75U, 0xbc8bd42cbee644efU,
  0x3bc8ef2bbdc2a6e0U, 0x3d94291e3c81be04U, 0x3bd12e4abd0dbd90U, 0x3b4b98613c997cb8U,
  0x3cee3c4e3c096842U, 0x3d2a7b73bceba4dbU, 0xbd997b46be17be70U, 0xbc2e96503cd7d0aaU,
  0x3c39e49b3d1bd3fcU, 0x3b25ef33bb59c428U, 0x3e3babab3ca38184U, 0xbc6c81b9bd4a8c64U,
  0xba66ab5fbc020aa0U, 0xbbb5709dba60f674U, 0xb140f46234b566cfU, 0x9dbaa6c8a095b9bU,
  0xa9baa3d609a57e05U, 0x89dca94789e47988U, 0x9d06841789d6bdccU, 0xb617c76e1eb5db94U,
  0xcd2115589c0efbfU, 0xbd6a54e63d6ba475U, 0xbe3cfaecbd696253U, 0x3d013cf5bcf04512U,
  0x3c8f9c39bd9ec188U, 0x3e0a25db3d0b0227U, 0x3d313e5d3c40d947U, 0xb1455e2cbc617eeaU,
  0xbba233e7a7afa9edU, 0x3bab225509b7f3cdU, 0xbd638675bdd5c347U, 0x3c85a6fbbe02fb7fU,
  0x3d080baf3baaf35cU, 0xbc4b1d87bdf6ed62U, 0x3c5d32d93d9bb484U, 0x3c78b6543d54e3b0U,
  0x3bc4c33e3c25c3f1U, 0x3d4a5ae63c0a84d5U, 0xbcdf4439bc897716U, 0x3d0a1d82bd457cf3U,
  0x3e21d97c3d073398U, 0xbd8617ed3cf3fe54U, 0xbd5a146bbddc35e4U, 0x3dfc5150bd3cd0b0U,
  0x3cc1aefcbd08d046U, 0x32d94fa0bc7a7d85U, 0xbc4a68ec2c1182c1U, 0xbc1559dc3a9ce100U,
  0x3a2ccfc53a1c383aU, 0x3c4c772c3cae83edU, 0x3e7a74d13d4f9df3U, 0x3c3b004f3ba2220fU,
  0x3d9a139abb8d46b7U, 0xbe5a55ed3d2a2ca2U, 0xbca96c31bbaff560U, 0xbd5e02c93d624581U,
  0x3d03482e3be7134bU, 0x3bcdfbea3d081606U, 0xbc1027963bbdcf96U, 0x3b6a7947bb86ad21U,
  0x3dbe39cebd590ad3U, 0x3e032fce3d53c29cU, 0xbd6ca56b3cd22075U, 0xbc93a3043cafc0a6U,
  0xbd1cfab4bc8b3259U, 0x3b695a09bd24c05cU, 0x3c7666e8bd79d7baU, 0x3e3bdcc73c8fb09aU,
  0xbd93b7c43c8a6470U, 0xbce2500dbd541d81U, 0xbcf2bf0a3c98aeebU, 0x3d2fd8fa3bc0a97fU,
  0xba0963c7bc85265eU, 0xbd4d8df73d65bd5aU, 0x3c67e863387717a1U, 0xbd0bb6df3d38a927U,
  0xbda3d991bd1102daU, 0x3a423ba2bc292a5eU, 0xbd13bce2bac7e49cU, 0x3ccea6f53cd1ff6dU,
  0x3e29d8303edbe7beU, 0x89a5723dbc7248f2U, 0xbc35899e8905dfbcU, 0x34fa223233b6b476U,
  0x3c0049ab3a70dd5eU, 0x3e150dac3c8033d3U, 0xbd7e3546bd63d240U, 0xbcb7851ebdf2db93U,
  0x3ded4094bc5ee61dU, 0x3d08e34dbce5dbbbU, 0xb414ba72bbe68231U, 0xbb983833b44dd98eU,
  0xb08b748909b526cbU, 0x3d9a63db3a6bdbc5U, 0x3d053d5f3e16f1caU, 0x3cf203ee3f3cb547U,
  0x3c6055ef3b5b1867U, 0x3cfe37da3cae886cU, 0x3e2f2e423ca4ed59U, 0xbc8257a8bceee291U,
  0x3d2dd7ffbcba4401U, 0x3c91c7fabd95674bU, 0x3e30559db948feccU, 0xbcf523213e17a3dfU,
  0xbcf651f2bf2423d1U, 0xbcef3a2f3c285c9bU, 0xbdbee56d3abed3e5U, 0x3c8f2347bb03fe3dU,
  0x315dc472bb8fad91U, 0xbb342f9032da717dU, 0x2a9421cd098bc0a7U, 0x3c3bd2c03b14c36dU,
  0x3e2d2ade3cdf2a97U, 0xbd02fc4ebdbe0e5eU, 0x3c280cea3bd407b9U, 0x3e40552c3cc1df2dU,
  0xbd3dab26bcc4d30eU, 0xbc97d5b43d676da3U, 0xbde744f4bc9843e4U, 0x3be46698bc6eeffbU,
  0x3a48abc23aa52f61U, 0x3e420bc63c885c99U, 0xbd1c21e7bcd1d2f9U, 0xbd8e6002bcff4741U,
  0x3d710b78bd85380fU, 0xbdddd028bc52ec41U, 0x37ab8dd8bb9ca28aU, 0xbba0df9936493e88U,
  0x9eaeb6c8f30afbfU, 0xbca6f396bb079751U, 0x3cb25dee3c175cbeU, 0x3e840cd93e1f2c94U,
  0xbc77b4b73d5c90f6U, 0xbd3ddd223b760320U, 0xbc22581f3da51311U, 0xbd836bf3bdc407feU,
  0xb79c7f90bd536778U, 0xbd2abe6e3d1671d8U, 0xbb668a93bd23da43U, 0xbda9a6cb36c9b1dcU,
  0xbae44b5c361c9a30U, 0xbbcbc119bd33c003U, 0x3be5844dbdd1948cU, 0xbd17c6003d7a1d5bU,
  0x3c9e6750b7e03ec9U, 0xbd39776bbcf3686dU, 0xb79eb40dbbd6272fU, 0xba05ad5bbc6eda80U,
  0xbc7ac3df3b2c077cU, 0x3c2a3914bc3a81c7U, 0xb69d436fbd9a542eU, 0xbdb78399bbe9b49eU,
  0x3c6c218b3d39c82dU, 0x3e477c4d3ca52d45U, 0x3da8e589bcc010ccU, 0x3dc623083cce246eU,
  0xbd7c8165bc6b151cU, 0x3bd7c9d23e7d4ceeU, 0xb6cbf706b5d18da2U, 0xbda3ea2ebc5d4c27U,
  0xbd3157c9b7fd65deU, 0x37880f9d3d84fd69U, 0xbd30782fbbc7100aU, 0x3c2d98803e077edeU,
  0xbae09f163aba1265U, 0x3709be8a3c964f06U, 0x3db6c7c1b6ababfeU, 0x3cee1d913d4aed21U,
  0x3dab7ed9bdb01046U, 0xbbc68aea3daac1b0U, 0x3cb2268f3db2559aU, 0xbd53778e3da9c2d5U,
  0x3d8aedb3374a4757U, 0x3df1dfb738028960U, 0x3c653aa53cd75362U, 0xb7ffb576bc51525aU,
  0xbb848319bc112badU, 0xbd390ee1bc161c75U, 0x382b3f993df64a7dU, 0x3c6cc8a3bd0930f3U,
  0xbb9b87913b4e2318U, 0xb7f87fcbbd997e7eU, 0x3727f0563cdf72a6U, 0xbd758d263d055db2U,
  0x3cab68713d4c25efU, 0xbc87ef943d80cb0bU, 0xbd2ef8b2bd1e9d2cU, 0xb760df1e37e8411dU,
  0xbd095bdc3805fcb7U, 0x3ccc97babc7d3440U, 0xbcc8b3de3d7aa7b1U, 0x3c00578e3ea3758fU,
  0x379fd6a63d1de9a3U, 0xbcf68968b738dd14U, 0xbdd98d57b7a0a63eU, 0x3d087aecbbf1eb19U,
  0x3f220c70be678c1fU, 0xb954803a3a412501U, 0x397a1e04be2ebe93U, 0xbe871becbe87b853U,
  0x39c17a94b9844054U, 0x3dbceb3838d9f8a8U, 0x39cc440cbbe894f5U, 0xb7a2f8f739902b3bU,
  0xbda8eff4ba1a470bU, 0xbaa080ad38aa81c0U, 0xba456ae2b9500e97U, 0xb955c50e3991fe9bU,
  0xba8fd9a9394533deU, 0xb709cd93b894488fU, 0x385c5fdabe52dbe4U, 0x38ef9b193c1ccd2fU,
  0xbe56c9cfb8e14481U, 0x3a98d8793a476e58U, 0xb95c0dd939a49893U, 0xb8fdd3f338b3e8f0U,
  0xb8a1d3ffbeb880adU, 0xbd26ac00391472b4U, 0x380b624e3f1671d5U, 0xbf5e3b9238a7005aU,
  0xba5c56f2bce08e68U, 0x398b3e10bd09749cU, 0x3e203449b9e2521cU, 0xb89e7d27be9be70aU,
  0xb9bbcc82b88ca083U, 0x3917a2ee3dee5094U, 0xb8b3b988ba3af060U, 0x3861498db9eb8bfdU,
  0x3de701ebb90a28a3U, 0xb851a614b9a97b38U, 0xbfeaaed3381f6570U, 0x3881dc2cb9985b6fU,
  0x3a314e58b88bae3dU, 0xbe54ed8cba8d28c2U, 0x3a0e2ecaba40abebU, 0xb95ccb7abab26ed8U,
  0xb890b5e539eddfa7U, 0x3a8a4a91be399828U, 0xb8d5abd13a384128U, 0xb8338b0dbd1af72cU,
  0x3d5909593eb32753U, 0xb903da06bebe9b02U, 0x3e6a8257b9d62242U, 0xbb4192cbbdddd895U,
  0xb69051f9b9bc5419U, 0xbe0bbe6738e7e3acU, 0x3a814f02b74f5c6bU, 0xb7d84828bd28bfc4U,
  0xb9ee4dae39c62979U, 0xbea6296d37e96c26U, 0x3770f12cbe2e834dU, 0xbdebef833acc02f4U,
  0xb896136fb9844867U, 0x3d0def553d1361f7U, 0x39f45c49b9bceb43U, 0xbda7b538bcb339a8U,
  0xba10b189be99e919U, 0xb8d604d239367373U, 0x39efc231b93bf3cbU, 0xba3239cd3e8374d2U,
  0x3eb851eb3e3790ddU, 0xb914d5aab9f18734U, 0xbab6b37e3e163bbaU, 0x3ec177e9beae93b3U,
  0xb9d6c6e3ba11ef0bU, 0x3dabdbbb39cd0694U, 0xb84fe449b8d92f87U, 0xb98c52bbb9eeb670U,
  0xbee46b56ba189436U, 0x3aa33573bab1a056U, 0xb93fdde3b99e1ac5U, 0xba04b04f3955fffcU,
  0xbac9fda5b68a886bU, 0x3a383d45ba34e27fU, 0x38a372babf27551fU, 0xb7eb6bbc3f140fb8U,
  0x3d80cf62ba978b74U, 0xbad094dcbad28dbbU, 0x381127ccbae02454U, 0xba150154ba2ccde6U,
  0xb876d0c13e567986U, 0xbb1e644ab9a600ecU, 0x39e43dacbdb3cc55U, 0x3ecf5434b9c017e8U,
  0xba6fcae6bd25d2fcU, 0x39703ecdbac2364fU, 0xbe8d8d0dba0267b8U, 0xb9d72933bd9eaa84U,
  0xb9d4ae79b8e26b32U, 0xb93116c0bdac0b33U, 0xb9200f703acf7ec1U, 0x39590a3d3a76091eU,
  0x3e0d1df739a7275aU, 0xba9d46b2bb6aceb3U, 0xbf53c8e9b964b2e6U, 0xb82af75dbac98c77U,
  0xb99b623ab905040dU, 0x3e71cbac3be37fd2U, 0xb99f7c6ab8798defU, 0xba0d6c203a3209c9U,
  0xbadddc2eb9a0b982U, 0xbb0d7dc9bed6e9d1U, 0xb92e14b8bb0873ddU, 0x395ecd17be9eede9U,
  0xbc0688653c8ec325U, 0xb84fb049be16b503U, 0x3dd3041cba2622feU, 0xbbec82c0bd00487bU,
  0x398faf00b9cd6cfcU, 0x3e69fb1fba90073eU, 0xb950907339b7d08cU, 0xb9930505bcdc4c88U,
  0xba0e71cc39bd4823U, 0xbe9d7ace39f00f46U, 0xb9d7bd95bc26c5a6U, 0xbed473ecbaa670a4U,
  0xba798ad2b7f1390cU, 0x3b204070be401539U, 0xbb4adc19389cd5f0U, 0x3dd3bb3dba8be7a7U,
  0xb98c009a3e9c7959U, 0xb9c338dfb93ed6f4U, 0xbb07365ab8ff58dfU, 0x3a24e78fbdb056bfU,
  0xbf2cd7153f466573U, 0x390e7d3ab95e5b9aU, 0x3b2c8c193d8f8bb4U, 0x3c981c8fbd34c62eU,
  0xb96b2d9bba10660cU, 0xbdfd608138f7e543U, 0xb90bdd61bb8814c4U, 0x3906f82939d5e409U,
  0x3eb0bc2839842db4U, 0x39b8bda6b9cb2553U, 0xb96e480b377f9928U, 0x391f273a38f5f044U,
  0x3a811c55ba0ab5e1U, 0x3c5cdc4cb9659c4dU, 0xb92f602ebe9208ebU, 0xb90177093edd8e0bU,
  0x3f14fef8b879aa87U, 0x380d7fefb9d04ad7U, 0xb9a299d439ba9638U, 0x38a3e513b97a2c29U,
  0xb90b77163f51a2a1U, 0xbd15c825b9db5744U, 0x3898b2ac3ced8858U, 0xbeb9afb838802f63U,
  0xb9c5f3ac3c385634U, 0xb853d5edbcad8afbU, 0x3dab1aa4ba00dbb6U, 0x38b90b223e962f17U,
  0xb964d6b8b918fccfU, 0xba0825883f30b5e9U, 0x38ebac5c3bb47d1dU, 0xb96d9228b9bc2741U,
  0xbe09af07b964b7ccU, 0xb9d07851ba33f617U, 0xbe7f07ceb933185fU, 0xb7ac48fdb833b59dU,
  0xb733c2c6395b8f52U, 0x3e9d56ed3a609a1eU, 0x387cacb3b963860dU, 0xb7bee834ba07c917U,
  0x39e714e0b976d552U, 0xbc04863d3e951533U, 0x3899e140b9aa715eU, 0xba113fa23eeaa279U,
  0xbd1b3801bbff2b67U, 0xb82db716bf4dc008U, 0xbed1c14538a6dcc8U, 0x3b269a2bbbc13670U,
  0xb8881433b8e7593fU, 0x3e2e31de3912fb61U, 0x3a2ec637ba84cca1U, 0x389934073d23e36aU,
  0x38a142da36d5350eU, 0x3d88dc0e3650c690U, 0x395ddafa3ec10b71U, 0xbede18cf3b408f8aU,
  0xb8488831ba32db9bU, 0x3d2a94dcbe98b4fbU, 0xb9cfd2f2b9233521U, 0xbecb90bfbc9ee5b9U,
  0xba206f173e814066U, 0xb785b6ec38747857U, 0x39cdebb4b9c566e6U, 0x3a574e76bd3eb822U,
  0xbe061f04bc1833abU, 0x35c67e09b9b32097U, 0xba81f2173e947585U, 0xbec6a9a13caa46e4U,
  0xba5f1801b8f0fa42U, 0xbd82bf51b886d0e0U, 0xb94d42273ad91e01U, 0xb8376800b9ee81c1U,
  0x3ecb8ceab9bec2aeU, 0x3ac607a3baa87117U, 0x3a895d12386034b6U, 0x3941386a396b8315U,
  0xb987746cbab45c65U, 0x3b5c670839cac8a9U, 0xba1f6c48bcaedff7U, 0x38e8bf30bdce2af8U,
  0x3ec58ce8b8c0874dU, 0xbac75bc8bab5d8feU, 0xb9b6c468bab84c00U, 0x387046b9ba15fceaU,
  0xb97981e83e86318aU, 0xba099bf6ba9c9c6eU, 0xb9b52fe03ec1b2acU, 0x3f1bfd5bb8aeb501U,
  0x3a684ad03bc42051U, 0xb953a29abb4616d9U, 0x3cb3a0d6b9b41b1eU, 0xb690d6003f0cabb8U,
  0xb939bd4eb9e37324U, 0xb9752db13f00bcf6U, 0x360aa907ba9ffbc8U, 0xba5145a63a01bd95U,
  0x3da1a46139846072U, 0x3976f5623b139fccU, 0xbe90bd0cba01be24U, 0xb8d165c0bb190e0fU,
  0xba0f0e15b97ef121U, 0xbef3d27bbb0e96b1U, 0x3984f49b3a53416fU, 0xb89d7384390c79c9U,
  0xbad66521b9d9de88U, 0xbb2244d63df4bfc6U, 0x38822e63bb079292U, 0x3637f3babd621ef5U,
  0xbc9b7143bc8a2088U, 0xb8fa64ffbf0cc5f0U, 0xbd116f7b39d23368U, 0x3a1b88cf3e00698fU,
  0xb859de52ba15df83U, 0x3e41985ebab222ebU, 0xba842b273a2c5d83U, 0xb8a09beebbb71f97U,
  0xb95c207db993c4d1U, 0xbe1a6930b8addfdfU, 0x38fe31843e139998U, 0xbf1c9e5e3ab4f0e5U,
  0xba93df2cba3f2260U, 0x3aaa4163be9549ecU, 0xbb322c8c3979556dU, 0xbb5491babb928134U,
  0xba6da06c3e827ff8U, 0xb81bdec0ba733b28U, 0x3aa78d05ba418c8eU, 0xb98cda75be84d138U,
  0xbe9191983e9ecbbaU, 0xb939e8a5392ad550U, 0x3a1ce3443e8afe4fU, 0x3e18cc27be892cffU,
  0xb9d71c94ba03a2bcU, 0xbe1764cbb86d8d01U, 0xb9a6916cbbd6e55eU, 0xb903694a398cd4d0U,
  0x3e9ddfd2b9286307U, 0xbac1f02e39b0ba21U, 0xba85643db88224dcU, 0xb92e8e3e399f533bU,
  0x39138ce43a1194bfU, 0x3ccaf3c038dfeafeU, 0xb86f76f5bd9ea05dU, 0xb8a3e11b3e8e46b3U,
  0x3d3d3a6e39ad66d4U, 0x3ad44484b8189d35U, 0xb7ff90f3b9983361U, 0x3747f1f2b960fe14U,
  0x39bb32343ed3bcf1U, 0xbd33e3b2389ba745U, 0x399b587d3ee07786U, 0xbed92fd638765fd7U,
  0xb9cca7eb3d2ac3eaU, 0xb8f35886bd014810U, 0xbd791c81ba03119dU, 0xb76af45b3d5c92daU,
  0x386ae8543972ad08U, 0xb6f052933ecbb43dU, 0xb998e8243b8a03caU, 0x3a670c9eb9d48691U,
  0x3dcf7037b8bba0f8U, 0xb8af30093ad2d30cU, 0xbfd946963a1a0ddcU, 0x364c21ef3a178ad1U,
  0xb9dee7a039360e8cU, 0x3e967773ba6dbe5cU, 0x39c6f25a37ab7a25U, 0xb7efdf453aa33666U,
  0xba1a79b3398c998bU, 0xbad774453ecc1cc0U, 0x39a0f7293957fef6U, 0xb9c3a11fbd2176d0U,
  0xbc3015a23f0595c6U, 0x3918eec3bf0d5e5eU, 0xbe5ee4aeb9a2b7d2U, 0x3c25eb8f3d6e99b3U,
  0x38af2a363939f872U, 0xbd1d9653b9124aa8U, 0x3aae2680b79d2c53U, 0xb89c0cc0b8d31b4fU,
  0xb906cf10384657ebU, 0x3d4dc102b8f681eaU, 0xb7a509b93e3a454cU, 0xbe850f3c3a835afbU,
  0x3828fff0ba2445c9U, 0x3d2cedbebe030424U, 0xb98b5c48b90bf630U, 0xbe058d28bd0da031U,
  0xb92a828c3f046ae6U, 0xb8a17806b9cdf1fbU, 0xbb5d97dcb8b5572dU, 0xba1b4d08bdc49d22U,
  0xbe3852b8be35cf85U, 0x38e4eb2f398b0bf6U, 0x3a125f893dcbfa70U, 0xbee6ce3a3ebc5acfU,
  0xba6d5d28398e7e43U, 0xbd131291ba5163ffU, 0x39c6cccf3b69f5e8U, 0xb95cda1cba71286eU,
  0xbe86b626b9ba24bfU, 0x3a5d9918b9a20d8fU, 0x3a23152d381c6ffeU, 0xb8c3e5cbba6d230cU,
  0xb9ec1623baa66b07U, 0xbb7446aeb9b26745U, 0xba6c28b73ddbe4edU, 0xb90333a7be151ab7U,
  0x3ea20488b92f4c8bU, 0x3896ca7c38a546caU, 0xba4fc97e390b4ab8U, 0x395553fdba1db5afU,
  0xbaafef14bd85cf19U, 0x3b2db40fb9bfc980U, 0xba58e5e43e4152b0U, 0xbf2cdd7439933321U,
  0xb9607cca3b561298U, 0xba303cd8ba4c6343U, 0x3e368f443976c4ffU, 0x3954d1c43dada64eU,
  0x3a0f73c4ba819ba5U, 0xba61dfa7be79d2e8U, 0xb94062d4bb633d77U, 0xb8484cc3ba02d72fU,
  0xbddcd8edba4722d7U, 0x391d0d4139a61743U, 0x3e65e1a4ba68e810U, 0xb90c44a9b9730eb2U,
  0xb942619ab9203a72U, 0xbe2d52afbb5f7253U, 0xb8c9c69bb9deb540U, 0x393b3d7eb9b38b43U,
  0xb8093febb8f1b98eU, 0xbb9340c63e4a0d2fU, 0x399a2a0d38c67b72U, 0xba9c81babc24085cU,
  0x3d1cf3b4be401e3eU, 0xb74495e5bdd5656bU, 0x3d11835ab8a816d2U, 0xbaad5970bd1859c4U,
  0xba0a4cbf38faa1c0U, 0xbe043995b9987655U, 0xba24c71b3902ee6aU, 0x386fe2bd3c3743ebU,
  0x39d49724ba4fb2fcU, 0x3b5e1e01b9f041f6U, 0x38ffe4443ea895e5U, 0x3ef77d413a435e3aU,
  0x390058c8ba6396a5U, 0x3addce96be79e0ceU, 0xba66eda239d07bebU, 0xbe147f92ba7425f2U,
  0xbaaff05d3e92ad50U, 0x37c23350ba401acfU, 0x39aa40d7ba5942e7U, 0xb795330f3e240990U,
  0xbf817d8d3f09fa8fU, 0xb7415f0f39bdd147U, 0x3b1e89a73de32a6dU, 0xbe39d3c338152889U,
  0xb863a1aa3a5507f4U, 0xbe0326cab953066fU, 0x3923fdfdbb934765U, 0x3896ce40b9f520ebU,
  0xbe477f3f39efe97cU, 0x3a942b94b9b11d52U, 0x3b4b71a1388af05fU, 0x38382e6238f3ecf9U,
  0x3b0af5cab9a4db0fU, 0x3bf32f9839c10162U, 0xb94802363db28196U, 0x384b77ab3d916d33U,
  0xbea9d35739a80d5eU, 0xbadbeeaf39a9257cU, 0xb9a701f3b9e753c1U, 0x37d5db09392aac0cU,
  0xb974b2a53e754542U, 0x3b0a2b89bb00d40eU, 0x3979ee053dc4e252U, 0x3e6aefccb875148aU,
  0xb9c8cdb1bcf9d85bU, 0xb99511873b8b5988U, 0xbdf42541398d8d83U, 0xb73108d2bc90a9baU,
  0x39a729ed390a6ef8U, 0x377a11dc3cd522feU, 0xb93569ba3bcc6067U, 0x3b7474af3b45e68eU,
  0x3d28a4553920ab22U, 0x39dd4fad3aaeda03U, 0x3f2ecd26390cf596U, 0x3c0b7f78ba1312beU,
  0x39c8c5a338f9b179U, 0x3e85035c3b25a408U, 0x3a10d3903bae99d5U, 0xb8dffd783ba7965aU,
  0xb9ddef773a055d0dU, 0xbb3d72553c093278U, 0x3a0605dbb795cd38U, 0xb9873b443f0d4c45U,
  0xbd48b0543e110a03U, 0x38e6656c3e3dc4d5U, 0xbf0d47e2384f2874U, 0xb8b0ad343e14c9d6U,
  0xb95ba2c7b7eb8350U, 0x3ed94827b80c04ccU, 0xbb06bd2b3b51fcfeU, 0x38e2c9babd48b6e5U,
  0x3a010e15b9a4906eU, 0xbd4c8c86b990e872U, 0x37e615733e9c29a1U, 0xbf06edbf3c107b92U,
  0x3854b3cfba89064aU, 0xbb7f190cbea673e8U, 0xba90681d3a2c52eeU, 0x3d936c8f3b0f8df6U,
  0xb962b6b93e1e75a9U, 0x380064a3ba359766U, 0xbaae531c399b782aU, 0x3b010241be020d38U,
  0x3e8d0c14beb5ef3bU, 0xb9d325693977a4caU, 0xbaacfec3bccbb04bU, 0xbe341f203da1c396U,
  0x3a06642f39ab82a2U, 0x3da1596f394f0b1dU, 0x397747b0ba673288U, 0xb8f6b402b9430576U,
  0xbe90c3d439a1660bU, 0xba5ee59eb771e565U, 0xba99af3eb897a24dU, 0xb93767b0b93a7531U,
  0xba0dcf88b962fd25U, 0xbac2f39a38983d63U, 0x392485d33da36582U, 0xb894f4c83de9f1ddU,
  0x3e40897838d40c5dU, 0x3af57bb539a92df3U, 0x37eec5e839df125bU, 0xb936ba44b7c94effU,
  0x3867cdbbbdddfb20U, 0xbcb28167398f033dU, 0xb88190843f131986U, 0xbfa0423db90602f9U,
  0xb407d310bc9af7b8U, 0x3986ad61bca0fb9eU, 0xbdbbc489386800ddU, 0xb8787739be20e277U,
  0xb9c3232f38302786U, 0xb9337248bdd8a74aU, 0x399c070db9958d35U, 0xbb06eb80bad5a64bU,
  0x3e1f094739797dbdU, 0x392a9f00bbdd8f90U, 0xbf870a22b6dd6af0U, 0xbaef89f23a84f011U,
  0x39ddcbc8b969164dU, 0xbe5e4ba2bb18a261U, 0xb8834a33babf9af5U, 0xb991708fbb1bad01U,
  0xb591ee6138ceee5dU, 0xba557f8dbddba53aU, 0xb98e131d3aec91d9U, 0xb9a67b353da00acbU,
  0x3d0be0ce3e6e04feU, 0xb8a604153cb0e34eU, 0x3db16f61b95c0683U, 0xbba4ab813d66dd68U,
  0xb98c33343a516e27U, 0x3dfb8f7839cf8db7U, 0x39b2ff18bac1b4b6U, 0xb7e829bebc24e640U,
  0xb957484539346de5U, 0xbe2307ec38eda460U, 0x3734b109bc9f410eU, 0x3e08972ebaeae475U,
  0x39c6fe2fb8ff8426U, 0x3cb2b88bbe25745dU, 0x3ac71c3637889c95U, 0xbcdd2f08bc9a57d1U,
  0x3a092e30be4679abU, 0xb8d1209bb780a2fbU, 0x3b06e97c3938c003U, 0xbb0612673dded5ceU,
  0xbea9a6e33ebd1abdU, 0xb89004dd39842c34U, 0xba4375813e5d5928U, 0x3e79f86f3eb86833U,
  0xb983c08239a0d549U, 0xbdb1ba793977d22dU, 0x38bf7d0fbb99e385U, 0xb73cba0f38ee638bU,
  0xbe8b27c4395ced22U, 0x3a354e54ba2e695dU, 0x3b99d1ff391dcfabU, 0x391e72cdb97f4caaU,
  0xba50a1d7b8826513U, 0x3bdffb52b8e65018U, 0xb9d0a0cb3e26edcbU, 0x39c4cdc8bdfa3d2fU,
  0xbebe5adb3786bdc7U, 0xbaafb36abacaf554U, 0xb89ddc8dba509066U, 0x3922cca8b8fe094eU,
  0xb88f9a70bf1d9144U, 0x3b14224fbb36e791U, 0xb9a4694f3f0702adU, 0xbfa1d0a338a37938U,
  0xb7a8b6663c878f34U, 0x3a181033bb4e8618U, 0x3edc1f3d395a30d1U, 0xb87a1b023ca37119U,
  0xb8558ec3b8fce183U, 0xb908404bbe2be8b5U, 0x3809664e392511e1U, 0x3b16121b3aeb0378U,
  0xbe75aab9b927a9ccU, 0x38d15feabba07b88U, 0xbe196b4db9e4e6fdU, 0x3bfd9228baa33e25U,
  0x392b890eb8cef355U, 0xbe9a33c63aec471fU, 0x398ead643bc82a68U, 0xb8e4eb7d3ab600d5U,
  0xb90ad4133a7601d7U, 0x39c10f0bbdaaf75fU, 0xb8b4524bbae68869U, 0x39de95b93f54f244U,
  0xbd2ee13c3e01d549U, 0x3838dba93c5294d6U, 0x3e5a5f4c396f295eU, 0x3c6268a5bd151deaU,
  0xb96e3d69b8856060U, 0x3daf02ebba95d098U, 0xbae830553a6c34ffU, 0xb645b939bd0941ecU,
  0x38e4b83e39e2fac0U, 0x3e8a9e4b383cc78fU, 0xb90cf206be154bdbU, 0xbf2003aa3bcc163cU,
  0xba7ef527b9bd5f78U, 0x3a95be35bec27bd1U, 0xbb8232253a9ff5c0U, 0x3cc0b6f7b8582c63U,
  0xba2c90abbeafac83U, 0x383e912f39558da3U, 0x3a028f15b8570bfbU, 0x3b1034c9bec30f5bU,
  0xbe120898bf137ec7U, 0xb966491fba8f385dU, 0x3b0d9e7bbe9efcedU, 0xbe5b7679be2dd7a8U,
  0xbab23870b98a7e2eU, 0x3cacbcd2b90693f5U, 0xb88ae5693c1ea6ffU, 0x386395e5bb15491dU,
  0xbea1e681ba766524U, 0xbab15d54b8fc8b58U, 0xb98551c4b9824299U, 0xb8bae1e239fa693eU,
  0x3a779e6aba95d776U, 0xb9dbaa5e38372c5aU, 0xbad3c3b83e6b718eU, 0xb91700e5be8945e3U,
  0xbea508d1b841220dU, 0xb98f9943b9eb778aU, 0xbaaab09bb7458776U, 0xb79e3eefbaa055bbU,
  0xbb06c03cbe6a111bU, 0x3b9ccc2fba6935aaU, 0x381632773e9bd2ddU, 0x3c3ba72538eaddbbU,
  0x394833febcc8c98bU, 0xb8fd0ed73bdc9c8fU, 0xbbafe516ba3e87f2U, 0xb963ea8bbf54c695U,
  0xb69f71d5bac2afd1U, 0xba902ec9bdad18f1U, 0xb98c364cba83923cU, 0xb9984c1639faecfdU,
  0xbe4446bfb9377c43U, 0xba744283b91dae55U, 0x3ea1df9ebacc7e18U, 0xb977c653b9f02b88U,
  0xb98729b2b9489dc1U, 0xbf4ab927bb164415U, 0xb8fa8d4eb90ed82dU, 0xb88f5936397865c6U,
  0x3a02bfa0b9bd9f1bU, 0xbb2ece0abeaa48deU, 0xb94c2759ba2fdf55U, 0xbabb7b083ea1dd0cU,
  0xbd156baf3e9c1dceU, 0xba02db103e72ecdbU, 0x3e30da273807cd2cU, 0xba149025bd721b6eU,
  0x388d14cab8d8aca1U, 0xbea23d9e390a57a7U, 0xba5ce756ba02ea5eU, 0xb78e0963bd86a3bdU,
  0x38809474b988860dU, 0xbd8a67d7b8c923c5U, 0x387da0803e53c9a7U, 0xbe59338aba704f1eU,
  0xb98289b0ba8daa29U, 0x38bcf405bec9995dU, 0x38612aa8ba19a0bfU, 0x3ee0e3283b8327ecU,
  0xbaf4cd103e298e4dU, 0x37b50742baa74f11U, 0x3a9ee1a4bac986aeU, 0xba837656bd65f204U,
  0xbdb243673d908950U, 0x38ad977039321292U, 0x3929fb8e3ddac7b1U, 0x3e46c4f03dd13024U,
  0x396a0adf39deff36U, 0x3c0a2fbd394a874eU, 0x3929efa5bafc742fU, 0x3994ffa03a2d33a6U,
  0x3e712b4338e41a55U, 0x3aa6f1eeb9f4da6dU, 0x3a27af7539c10772U, 0x3946e22a39ae3819U,
  0xba60708238c1369bU, 0xbb965ee3b8b88859U, 0x39032580bcd609edU, 0xb7b50215bd1c5492U,
  0xbc17e8f73a6afbc6U, 0xbae73365ba502459U, 0xb91f1185b9b98773U, 0x38ebe5e3b9a94eddU,
  0x37969666be119099U, 0x3c6ab135ba89b91dU, 0x38d5ceb3beb17b0eU, 0x3ee5f65038cf8b7aU,
  0x38f7a0dfbc91ce04U, 0xb970ed913c5e9a7cU, 0xbeebb7ed39dd5ffcU, 0x385fbfe33dcf52feU,
  0x39cf466b3a1b5150U, 0xb72563193e8b95f1U, 0x387440cabb24e404U, 0x3a13325c38d9de1dU,
  0xbe36bd2db8eaef13U, 0x39dce8d23952b14fU, 0x3f122a293935c1fbU, 0xba0990d1ba916672U,
  0xb9a380ca3a048244U, 0x3e85e0b639a98b7cU, 0xb981815eba340898U, 0x39958fbd39b9b57eU,
  0xba5160923949fb29U, 0x3b814915bf0ee3cdU, 0x393fb963b98deda3U, 0xb77b87e13b8cc80fU,
  0xbd19d351be618fbdU, 0x399bcf173da9c602U, 0x3e08e82f38f250d5U, 0xbad6f7c03e05c3f7U,
  0xb92cc64d39ac7695U, 0x3e8b0598b9f01be5U, 0xba0054b33a0ca51eU, 0xb7e1c1e5bb996025U,
  0x38027e4c38bda1f8U, 0x3d3187e6b98f23d2U, 0x391cf4f53e1516a6U, 0xbc5555aeba9e003bU,
  0xba093b4439fbb547U, 0xbca0949ebd939a5bU, 0xba0e5fedb9b86229U, 0x3ce0a10e3c7573beU,
  0xb98768183db87ba7U, 0x38ed8b763740a358U, 0xbab0bb5539d94256U, 0x39874de5bd31f4bbU,
  0x3ee44890be9013dcU, 0xba03cd69b8d5ae32U, 0xbad27102be9cc8f9U, 0xbe66956ebb562472U,
  0xba64e981ba17b041U, 0x3d6bd9dfb8f679e0U, 0xb92ae3753b336dd9U, 0xb9fdeaaaba97bbd6U,
  0xbf344b4aba0f43e3U, 0x3a8e2856ba9f8a46U, 0x3a961cc3b997d6efU, 0xb8dd4cf039097414U,
  0x396b21cfba2122f2U, 0x3c826b3c39fd5650U, 0xba9ea6ad3f27694fU, 0xba7c6d45bdd8b8c9U,
  0xbe571fd7b8a828b9U, 0xbb302032ba37ef97U, 0xba9660cdba88e401U, 0xb885c21bba0232afU,
  0xbaef6addbec09381U, 0x3b4599bb3a0327d0U, 0xb9ca90763f5852c1U, 0xbf820ba73751f712U,
  0x39e6951bbc91ad58U, 0xb89eee673b5bf72aU, 0x3e8e4a51b88b125aU, 0xb8b3de88beb4c423U,
  0x388d2c51ba86081aU, 0xba6896eebf05edbdU, 0xba0ee7413c0f9645U, 0xb8e6988cb91584a4U,
  0xbea21035b4eb3c21U, 0xb9a50249bbbf80eaU, 0x3e32cd93baaa8911U, 0x39d80954ba88f32eU,
  0xb9cce742ba9251ecU, 0xbf013579bb275893U, 0xb87b973e39bc5533U, 0xb88726773a14c245U,
  0xba848576b9e2cd6eU, 0xbae52506bd8cd5f2U, 0xb8ea2331bada4a8aU, 0xba676aa9be1fe512U,
  0x3aea8f5e3f13c5bfU, 0xba615f843f25198aU, 0xbd8beedf399ee8c7U, 0xbb1ad037be4d77f1U,
  0xb7c2cee53932c836U, 0xbec6d091383eade8U, 0xb93bc00cbaa85ab2U, 0xb93f4abe3c805e51U,
  0xb98bde3ab78f1185U, 0xbebfab9db809e58bU, 0xb90a219e3e79a284U, 0x3decc6aaba45f315U,
  0xb9525febba416d00U, 0xbba5b4433e613a68U, 0xbb07fe5b39c2eef8U, 0xbba1d0283b8a34acU,
  0xba8304afbeb9e43dU, 0xb90bc29eba601501U, 0xb9f97faabab5852bU, 0x3a6cd47d3ea96709U,
  0xbe976a013e3c0d86U, 0xba1e5335ba2516b7U, 0xb9f17eecbdf5dbd9U, 0xbe026297bd440eeaU,
  0xba8aa974ba08a03bU, 0xbdcb3231b9ebf0c9U, 0xb9d4e15a3989dbc6U, 0xba041d1fbaa1ba91U,
  0xbdd3b670ba8c0d67U, 0x39a6ee80b9da3e85U, 0xb9789765b9d93c78U, 0xb9ceec06ba2e9ca0U,
  0xb90bd1c5ba073103U, 0x3c341fa9b8f9294fU, 0xba80edaa3d5b0b5bU, 0xba8518843eedb18cU,
  0x3ee965dbba1a8ddcU, 0x38210c9a397787e8U, 0xba6af755ba169e4dU, 0xb880a4e8ba56d856U,
  0xbab679e13bfe54c6U, 0x3bd66c813a0f9d30U, 0xba1c013d3e9da687U, 0x3f39dd77b871be97U,
  0xba515018bbc22523U, 0xba1026b13bd68933U, 0x3d972c2bba78afd9U, 0xb8be28123cddd7fcU,
  0xb93701e7ba53b447U, 0xba466bdb3dc8d2d6U, 0xba3feec1bbc356fdU, 0xb937296ab9b59f1eU,
  0xbe44e39eb9f165b8U, 0xbae79486b8bd0fefU, 0x3e451370baa2aaceU, 0xb93656abba32962bU,
  0xb8ce1c37bab65941U, 0x3c1ba40a39bc6c99U, 0xb9992b78b9610142U, 0xb9810b6d3749460bU,
  0xb91ca974ba38183eU, 0xba96d6133eb8fc98U, 0xb7394021ba865952U, 0xba39580ebd5f2af7U,
  0xbd905553bbf28ca1U, 0xba8aee38bd039050U, 0x3eb2a5a5b9618ad4U, 0xbbac97663ccee6d3U,
  0xb9dd2530b7d98bf7U, 0xbf1cb0d5b9411f35U, 0xba060359ba4795aaU, 0xb7fddb09bd22f552U,
  0xb92ef54ab9cb8cd3U, 0xbc76d8e3b92c6b9aU, 0xb91020bb3e06f15dU, 0xbfad39d2ba3618daU,
  0xb8b1250eb8c3d21fU, 0xbbdcf45d3e6fcb79U, 0x38075cb7ba124400U, 0x3e9d12173b2b9175U,
  0xba6fc96d3e2f73acU, 0x36a6bb82ba37c84eU, 0xb6cd5979ba43de2dU, 0xb9a4e27dbd00b9baU,
  0x3dd8914d3ec5f5fdU, 0x392101ac3a534cd5U, 0xbacffdf5bd875ae3U, 0x3d957de5bd937774U,
  0x398117adb8f5a999U, 0x3d39d97d38bab6f3U, 0x3986bb39bc36aafcU, 0x3a04486a392c0acaU,
  0x3d26fa5b398f9a5eU, 0xbae59691b9f61a48U, 0x3b5083bb39a86e64U, 0x38a1b6ac398863d1U,
  0xba3dccbeb9b363b0U, 0xbb8ba1f9b81efcddU, 0x3a04735d3e1ab61eU, 0x3a37ffa2bc18e02cU,
  0x3eef975839b31677U, 0xb8692e3938473595U, 0x38686e8d392b3ebdU, 0x38e6e63fb9c680c2U,
  0x39c51fcbbd19e6efU, 0xbc8c382039b53090U, 0x3a03e9203c7d345eU, 0xbd3e06f937423c48U,
  0x38b8a063bc4df8dbU, 0x3a1c4277bbfc9289U, 0xbe721eca38be5b9eU, 0xb769889fbde811efU,
  0x3990f0da397d3620U, 0x370d2ef23e894a98U, 0x39ce41d3b9a19771U, 0x3b3d66a73a736902U,
  0x3d9e933e39266e2fU, 0x3a58aa113bbf85a7U, 0x3f0ddc39397d178eU, 0x3af0eb76b90d1252U,
  0x3a8179a139c6176cU, 0x3d81c18a38b01eaaU, 0x3aa838373b118d25U, 0x392419bd3ab67af1U,
  0xb901af9e389bb762U, 0x3a383aa63b3f67a2U, 0x3982855b37f52962U, 0x3a228d3ebcb94977U,
  0x3ca66e71bdfaa43cU, 0x398f57cc3befcef5U, 0xbdf06eef394dc80fU, 0x3c0e5c513e066e58U,
  0x3a2446413a2dacb5U, 0xbd9b2cf8396587baU, 0xba46bb2d3ac3a552U, 0x3992d63d3c23e4a0U,
  0x392f9da1399f5624U, 0xbd8e9d8139075a60U, 0x3933f23dbbd8c1fdU, 0xbdb62c1b3bc107ebU,
  0x3a261db3b942ba92U, 0x3bf3e8193d4eea68U, 0xb956dd003ac5c4deU, 0xbec1fb3dbc467dd4U,
  0xba09dc553caf032eU, 0x394f7bf33a458430U, 0xbb5fc011b86f7c3cU, 0x3b0ba99d3d939949U,
  0x3e8faaccbf22db4bU, 0xb8cad53cb8fdcffbU, 0xba73c23dbe56080dU, 0x3ddc5b013e1642efU,
  0xba9c7b5338d4a51aU, 0xbd99bf5cba5bf581U, 0xb8d5c8ae3a775a42U, 0xb93ba4acba8436c1U,
  0xbf1d584cba7e3700U, 0x3b141c73b85cb064U, 0xb8f9cf89b63ed8a8U, 0x3940920abaa4dd0fU,
  0x3a2cd24aba41519fU, 0xba82c685b8bece1eU, 0xbaaadf6e3f27cf37U, 0xba0d7355be785132U,
  0xbf3cd033b957972fU, 0x397e645bb92126feU, 0xba979101b9d12d7bU, 0x39354e52b98c3ac7U,
  0xba7e746fbee98aa1U, 0x398fc19fba199582U, 0xba1932513e3cf4d8U, 0xbf4fa98cb921a9c2U,
  0x39b02ed6bcc37535U, 0xba41b37c3c05b1cdU, 0x3f0072fa3992bb36U, 0xb8031387bea3900aU,
  0x3918a224ba831244U, 0xba47730dbf517497U, 0xb9fc6498babb111cU, 0x39a4ff973a5b0dbfU,
  0xbe58bf42ba6b1362U, 0x3a5da7bb3b57ae49U, 0x3e9fbfa2ba0f7d34U, 0x39b4c3c136dbf931U,
  0xba11b0efb98449ebU, 0xbf029a50bbb96c79U, 0x39030f8839a68d29U, 0xb95298cd383d6932U,
  0xb8c0ad2eba3cfcb1U, 0xbb6ecf98beb2d8b6U, 0xb886ff07ba0efd61U, 0xba62db53bde4c41aU,
  0xbcf5f1bb3e932a84U, 0xb9fb2bee3ebf5e45U, 0x3e7f13763837ccb4U, 0x3b8927783d7edff8U,
  0xba2fed7539ecf5d7U, 0xbe94e90739e33788U, 0xba3e8084ba01ff1aU, 0x382c7d133c63ec82U,
  0x39a39150ba911fcbU, 0x3dce6e15ba0f0467U, 0x389c9a113c329b3aU, 0x3f683a1eb935f729U,
  0xb8cdb898ba6a001bU, 0xbb9e468cbdd785caU, 0xba0dad1eb931b25cU, 0xbd699e4f3b4c57f2U,
  0xba83c74dbef7d114U, 0xb8dfeb0cba370707U, 0xb8716f9eba64564fU, 0x3a317f383edb0a90U,
  0xbe37f2693ef48476U, 0xb72012e4b9a5e905U, 0xba06c78abea55863U, 0xbdfa6cbc3e649317U,
  0xba85b28db807a8f0U, 0xbd5d66c1ba30dfcbU, 0x38ae59823a9a9b14U, 0xb81ffe5fba369542U,
  0xbe038beeb9d7717cU, 0x3a8d1454b923debfU, 0xb9e5e8a3b992c61aU, 0xb943d892ba9fc1f3U,
  0xb62fe8bcbab14135U, 0x3b7c0d5ab9819252U, 0xba445feb3d704f5eU, 0xb911ff9abefb2dcaU,
  0x3f06a23e38b40a72U, 0x39cbbc7f38f747e9U, 0xba99c1a5b8f70d25U, 0x389a7725b9bfaad4U,
  0xba8f7ea63ed033eeU, 0xba3992813a5075dcU, 0xba156ec63eb714dcU, 0xbdc4b30538e26025U,
  0xb959821b3d7677c1U, 0xb9a1d089bb9463b5U, 0x3ec7155eb9e8866bU, 0xb627728b3e9769e0U,
  0x39a5dd5cba80c29dU, 0xba86a5953f67bafaU, 0xb8ccbdecbb2ab3bbU, 0xbab7aed2b9be8f29U,
  0x3d836713b98cdea8U, 0x391d25073ab6ec7fU, 0x3d1fbfd4ba4c6061U, 0x374a20a6b8c51e7fU,
  0xba008e0736d16585U, 0xbe71c6cbbb95b1b9U, 0xb81fb326ba4ba1dcU, 0x37a371e33a27491dU,
  0xba04393ab94acea3U, 0xbbc440a53e6659aaU, 0x388057e6b9b89bcaU, 0xbabce062be28bd05U,
  0xbd69c377be368049U, 0xb8bf9291bf5c5c17U, 0xbe04d185b9524763U, 0xbaacce50ba6cb13dU,
  0xba20230fb91ffa26U, 0x3d12392bb8f3efc0U, 0x394ad56a37fe9721U, 0x3901a608bbb0268cU,
  0x3882e0b3ba18367fU, 0xbe7c2c16b989efcdU, 0x388d00a63a66a4d5U, 0xbe9c88d7ba50f176U,
  0x379846cbba7ff379U, 0x383abcebbe4e35f7U, 0xba30019fba321df1U, 0xbe7fd653bba864aaU,
  0xbad176fc3e727f5cU, 0x37c54e67ba8b8fd7U, 0x3a91c717baa014cdU, 0x38c9c33b3e109f54U,
  0xbe881b603ee6bc65U, 0xb965a2f439a0ea8dU, 0xba8325ecbccc79f6U, 0xbd7aeee7bea344d3U,
  0x39d6f8383903ac02U, 0xbd3cb2f033e1b8fcU, 0x38b969e9bb18b85dU, 0xb6938aa3b67108dcU,
  0x3ecf9619b881df04U, 0xba27e51eb9857c45U, 0xb96a9ad5b71943faU, 0xb90128fe3995b044U,
  0xb9e757a23943e5b2U, 0x3951e3dab8c7236cU, 0xb7d9e85ebe12d721U, 0xb8ae62293e67bbbbU,
  0x3f51073fb903b181U, 0xbb03ea42ba48b795U, 0xb982c4abba1dc2b2U, 0x3854b62037902f15U,
  0x3911129f3f51acf0U, 0xbd048fc638c4457bU, 0x39b3fa1cbdc3e26aU, 0x3f4d0d3538a2cdd6U,
  0x386fd492bc01f579U, 0xb8afb7dcbcc7bb2cU, 0xbde4b005b9adf7d4U, 0xb944dc023e1e3d7aU,
  0xb88bbdb039cbaa30U, 0x38a54df83f4b4d8bU, 0xb93176a4bb2a8795U, 0x3a86d30db90dd59fU,
  0x3d85e63939cb0d9eU, 0x39fb66413ae636f6U, 0xbf8ed173396c9c86U, 0xb919593ab9eb5afcU,
  0xb8c92ee438e714c6U, 0x3d942333ba988ad6U, 0x39829221b9a5c171U, 0xb903e8e3bae728c5U,
  0xb9cbf0bb39d603d1U, 0xbae860af3d6b777cU, 0xb9e8da52ba82edd1U, 0xb776a17fbe0c8b29U,
  0x3c7498a83e4fe7a4U, 0x39d33d38bf42e6acU, 0xbe1f641bb8b7717bU, 0xba369e833e159630U,
  0x3924ed14b810ad34U, 0x3c913a4fb95302e7U, 0xb8217f99b9c5f08dU, 0xb925649cbcfc442fU,
  0xb9c95ccd39b0cdeaU, 0x3e3bed15b7b23235U, 0x3942145ebe8616b9U, 0xbe94641e3b39984bU,
  0xb89bd37bba10eff1U, 0x3d005df8bdc25e48U, 0xbaa8f6fb39a8b850U, 0x3c196e19bcede1b1U,
  0x3920c20abe1489f0U, 0x37bbe4f638bd534bU, 0x3a920a99b9bddf86U, 0xb92454ecbed34da8U,
  0x3e08b6713e60825eU, 0x386428b4b890c8ffU, 0x3a8ed085bd33caffU, 0xbdf00d273e30152eU,
  0x3946ec5139881b0eU, 0x3cecd4d138fc530aU, 0xb8f5ae22bb1320e5U, 0x394b7c8c373179ceU,
  0x3e0a254439cacec5U, 0x3a19cba0383f6907U, 0x3a893c99b81ddb39U, 0xb8cc34bd39b31625U,
  0xba5f1f18398f8517U, 0x3bab679a3831ce1cU, 0x39d48c0e3d8e51c1U, 0x38db25583d98d7caU,
  0x3d0784de39e8b7a0U, 0x3a07cc28382284edU, 0x3906c34db952d6ceU, 0x386ee89537fffb03U,
  0x380115cd3e57336fU, 0xbd2a2ca3b8d20676U, 0xb90c669abd6ffd10U, 0xbfb898b93939a9e0U,
  0xb9cc9708baaf7ef6U, 0x39132f3fbcf5c9c5U, 0x3d5320d4b909ee64U, 0xb7b1a9e8bd990a2dU,
  0xb9a9f069b755f85fU, 0xb98ec3fe3f81b4ebU, 0x3890bddc3ab01de6U, 0xb9edf6b33994ea8bU,
  0x3dbd0f093979efc2U, 0x3a35463aba9b7b1fU, 0xbfb255c0389bf705U, 0x39b4081a39051166U,
  0xb7b54582b81f254fU, 0x3e8c114abacdc506U, 0x3a1d0c94b8c79d8dU, 0x38c644edb9f2defeU,
  0xb906d239398bd852U, 0xba9ff8e73e508a21U, 0x394306e6b83e3ed7U, 0x39c77c2b3c82a564U,
  0xbb88899a3e971e1dU, 0xb7a40915bdd11847U, 0x3dada2af38ce7d7aU, 0xbb83971a3cf50cefU,
  0xb93e3a0c38c64bbcU, 0x3d9f3ce937a283b9U, 0xb8cd68cdba11ccaaU, 0xb909a174bcbc62a7U,
  0x37bf1bf039067719U, 0x3d429381b7db269eU, 0x37d18cdeb9153f66U, 0xbe5a08d039913ef1U,
  0x3712ab9fb90ddc8dU, 0x3d2c96e3bc797a78U, 0xbaab8978b7e7a64bU, 0xbcf9cc78bce74688U,
  0x391996c03dd2c01dU, 0x38801d7a3a4180cdU, 0x3935636ab755ace2U, 0xb9201d9ebc5b71adU,
  0x3e0a58563ec0d2a7U, 0x38e45db839664535U, 0x3796937b3db813a2U, 0xbc96e5453e6a9d79U,
  0xb8eeca6b3a02e2e0U, 0x3ba191143889565dU, 0x39cf66a4bb3a142bU, 0xb89bffe239db31b4U,
  0xbe3c1b6b39285b42U, 0xba0cca253793b40dU, 0x3b7bc7ebb8a93b5aU, 0x3944a32a3992a2e3U,
  0xba63ccbe39ed5eabU, 0x3b9e1e0738b16db1U, 0xb8db57963e652aa1U, 0x3a178e0c3e6011edU,
  0x3e9913d839e52e72U, 0x37ed78603a025dcdU, 0x39773b8b385a4031U, 0x389f4fefb79f74faU,
  0x377a33b0be2b22dbU, 0xbc228ea5ba5c589fU, 0x395c2c3d3d3df255U, 0x3e83a66d399e47dcU,
  0x38dcfd483cb89bb4U, 0x397f8224bb01b45eU, 0x3e00f115b91a5f11U, 0xb90216383d2076d8U,
  0xb8d71a17389ad9dcU, 0x3951ea143ec43fdeU, 0xb80df43abb256f77U, 0x3b1c912b3ae5d422U,
  0x3d83936a379d3b5cU, 0x3820f04539f16b0dU, 0x3e0c73d438f8842cU, 0x3b8b11aa3a202742U,
  0x398e376d39a64185U, 0x3d0526cc3af44791U, 0x3a01fade3b8ac2dfU, 0x3878f6663b52037bU,
  0xb80938c43a110a14U, 0x3a8770233db96971U, 0xb9ae575c393f955dU, 0x39fe9480be201944U,
  0x3ccc20a13e449c5dU, 0x38a9878a3f0f4c3eU, 0x3d1ffa8db8e415efU, 0xba113a3c3c7eaf9bU,
  0xb7bcd1a337a7bbb4U, 0x3b0c126b39bd1955U, 0xba0195d43b2804f0U, 0x3978ea043abab9d6U,
  0xb9ada37139357b58U, 0x3e0bf990388bcf1bU, 0x3814cf4f3d9d5708U, 0xbe650d703c04624dU,
  0x39a4d70d38b9a58dU, 0x3bf0d1c1bd9beeb7U, 0xba57163d3addeeeeU, 0x3c24dab6bbf365cdU,
  0x39d4d953bde58655U, 0xb899c4a23814c35fU, 0xbb1d0c3fba026d65U, 0x3b3d518fbec5a4b0U,
  0x3e98a5103e7f1930U, 0xb83f922fb9db9228U, 0xbb1adb8d3d10e869U, 0xbdf8cb36beafbd2fU,
  0xba045ee9b9f1a40bU, 0xbc2e8619394d16b7U, 0xb7e529763b4d5ea7U, 0xb85115caba4de997U,
  0xbf2dcdbdb9d4adc3U, 0xba1ebdccbad81192U, 0xb9fc7d31b9f1898eU, 0xb8cc53f33a304613U,
  0xb9e7d772b93effd7U, 0x3c155288b7f549f0U, 0xb95c4bc7be974543U, 0xb7971cfe3cb3703cU,
  0x3d9fbf57ba0639a9U, 0xbaf63d99bb07753fU, 0xba0b5ddbbb05bd56U, 0xb9c1f0efbaa5eda8U,
  0xb9fca282bd02d735U, 0xb9df0aeeba233ea2U, 0x399ab9da3e08c29cU, 0xbcf7008db9187c01U,
  0xb9069cb3bcae2c13U, 0x383eca02ba9cfc69U, 0x3df0c0ffba9ff1e2U, 0xb9064711bf37e2f6U,
  0xb7b667b837f13a2eU, 0xba084af0bceb253dU, 0x39b1b259ba01cb20U, 0xb92c4e2c3a575281U,
  0x3dd6555f39b82ebbU, 0xba012b03bacf3c7cU, 0xbf09bb97ba26fa82U, 0x389da868bb286750U,
  0xb819e05939840bbaU, 0xbdcda254bba3b4c5U, 0xb75e642039670431U, 0xb939310e3a2eb6aeU,
  0xbaf415bdba0b8db0U, 0xbabe6ce1bf0b014fU, 0xb8788d4dbb2329a2U, 0xb9fd40efbd9afe85U,
  0xbc9b61973ea9b934U, 0x398b6b1a3f0be01cU, 0x3e8afb4f37b4eae3U, 0x3a9f3b64bcafd562U,
  0x39af9083383be4c8U, 0x3c9aa1e7ba9fa9a1U, 0xb9e246b339637ff2U, 0x3693a59abcab2981U,
  0xb95691b13984c59bU, 0xbe99d375397911cdU, 0xb97b3323bef229f5U, 0x3eb7e6d33a2312beU,
  0xbaae8e63b9b8dfb3U, 0xbb087526bde6fe6fU, 0xbb14163339c8f254U, 0xbdac51c7ba910497U,
  0xba308a9abded046dU, 0xb9071805ba07ed37U, 0xb98ab1e5ba26fcfbU, 0xba2620ad3ec49455U,
  0x3f3bdbb8bebcd1eeU, 0xb7209cf0394b8ce9U, 0xbb828583bbda22aaU, 0xbe33f62a3d9a2e65U,
  0xb9a407973a17f357U, 0x3e3277143953c214U, 0xb88f64cebbd2f8d0U, 0x3904988139bf591dU,
  0xbf3f25be3a3dee72U, 0xb9e24f5439bef339U, 0x3a82b885b933cff3U, 0x39bd6f08395308abU,
  0xbb2e75f5b912d095U, 0x3aaee73939c0d8deU, 0xb9bb26be3e84d8aeU, 0x3a21bfffbde8cd5eU,
  0x3e1f372239ca7acdU, 0x3a6065603aa41ee2U, 0xb9a7594139844684U, 0x34bde1873a8c2437U,
  0x3a2b1a57beb621c8U, 0xbc328cee3aabd871U, 0x397019003efeb205U, 0xbfa2c6d238e14da5U,
  0x38d38766bcca077bU, 0x3a0a3110bc4fd2d7U, 0x3e18197f3a1906a6U, 0x3889de7abe8efaf5U,
  0x3848902339afb577U, 0xb90ea78dbe440b8bU, 0x39b63d05bb9b58ddU, 0x39fbf907b9c5f0a8U,
  0x3bc9da43b8bffaabU, 0x3a54248bbbb79c16U, 0xbe872910b9708e51U, 0x39eba8563a05b791U,
  0x3a2149d93711337bU, 0xbd9447f3383eebf6U, 0x39ff8b6fba858f99U, 0xb6932bb2ba452338U,
  0x399daa233999d932U, 0x39ff11e2be749206U, 0xb95ebe6739ef7bb3U, 0x399d41a8be15dd3fU,
  0x3cc8a3533e7fae35U, 0x39981df63d45e0a3U, 0x3e93793b398bc922U, 0xbc313d77be1f9a9cU,
  0x39966ac939e7c114U, 0xbf0f41923a272b21U, 0xb890cb2db95d8d2eU, 0x390da72b3b874b6aU,
  0x384167ca38a8f93fU, 0x3db657a6390f328cU, 0x3945a5e4bde788ccU, 0x3de211ed3b061a85U,
  0x3982998a3a12d945U, 0x3bb0f7eabca1bf0fU, 0x3a7d5b12b8ef4af2U, 0x3a6cd676bc4f8d09U,
  0xb9837f3bbe83bf7aU, 0x390296423894f107U, 0xba936a1a37d20ffaU, 0x3b022a293e5210adU,
  0x3dec558d3e1122cdU, 0x389492c7b7b6b249U, 0x3a93624a3dc1077bU, 0x3e126e073e074e71U,
  0xb8e13ccd3951ae8aU, 0xbc1e73e138a71c65U, 0x398884f73c2727f6U, 0x388f1b393941db26U,
  0x3cce30d7394f8891U, 0xbac2f00739ddc1cbU, 0x3b11171639824cd9U, 0x39998a893a350e9fU,
  0xb923edcb39892ba1U, 0x3a9c99cfb9317c43U, 0xb8a808de3cb32033U, 0x399066f33e7997b8U,
  0x3f0dd3f1b6966856U, 0x39038a08393437ceU, 0x3a2ee017ba080446U, 0x3946690e38030aa7U,
  0x3a3bfb833e3f80dfU, 0xbc85cd47b636a5aaU, 0x39598e723e0e0667U, 0x3e9ef97e394208b7U,
  0x3a0d93f2bca65359U, 0x39c22d76bc105dc3U, 0x3ce789133a162f7fU, 0x392f04143cc07677U,
  0x39a8bf5db988eeaeU, 0x3a100ecb3eb81c08U, 0x39391c093bab6878U, 0x3ae6d1003b126dc1U,
  0x3e5864cb37bb4172U, 0x3a396a203ae4304eU, 0x3df6a24e39dea522U, 0x3b04606fba0d05c7U,
  0x3a1db04a39818abbU, 0x3e5053043a19ddbfU, 0x3a3305783aa25882U, 0x380402ad3af70cb6U,
  0xb95f7ad339bf39faU, 0xb9112cdabdd1f1e1U, 0x3932712dba7e1159U, 0x39a47393bde12c05U,
  0x3b43c481bba57019U, 0x3a12f1f9be18cdc5U, 0x3d556050b8bb9010U, 0x3b89bcd5bdfb4b4fU,
  0x39682c5a39666a70U, 0xbe56e9203991e63bU, 0x37d11f6c39edf1adU, 0x392d07df3b8fbbd5U,
  0x39ab51d2b838c55eU, 0xbc437dfc39760106U, 0x38352de0be090386U, 0xbee55adb3b9d595eU,
  0x395a2a5db991f6cbU, 0x3c40d22ebe5a4731U, 0xbaad385b3aaf2c15U, 0xbebaaed7bc723ad6U,
  0xba0a9ea1be0495eaU, 0x38ca721fb67884ccU, 0xb8c22ec93967df82U, 0x3aee6491bcf9fa86U,
  0x3d99717a3de8ed59U, 0xba4b3a88b9c48a47U, 0xbae8e2f9be841455U, 0xbeb0348ebe145450U,
  0xba2975e3ba378a09U, 0xbd8a676cba05c6b6U, 0x3934a083baffc34eU, 0xba0549c6bab05e27U,
  0xbeb3d59bba89b3cfU, 0xba8b852cba46eaa1U, 0xb9bcd329b9ba3ac0U, 0xb9a925f5b98c0013U,
  0xba707ab6b9a45372U, 0xbc18b94f38df5430U, 0xba180338be693eeeU, 0xba8b2ff43d8cb76aU,
  0xbde48a9ab9ec7cbcU, 0xba983561b9dd58c2U, 0xba52b3dfba15f2beU, 0xb928a0d7ba8444f4U,
  0xbaccb8013cee576eU, 0x3b258b8eb917e8c5U, 0xb9facd173e034d5aU, 0xbed330a0b9032b0eU,
  0xb99f27803d21d8c2U, 0xba06c1de3b04e511U, 0x3eb2b444b815326eU, 0xb94e45c1bcf64f4cU,
  0xb89601a7ba918d69U, 0xba7858113f3e4539U, 0xba450025bb5c0351U, 0xb7d378afba05609dU,
  0xbe94c917b9a33b68U, 0xba3079c4ba5779c1U, 0xbe519db9ba2dd125U, 0xb9ac45caba7810edU,
  0xb9a36bf0bacbe952U, 0xbe3eb854bbc41e9dU, 0x3925b8e6b963fe79U, 0xb929bc2e3996b22cU,
  0xb99576b1ba75f174U, 0x3886faa83d760975U, 0xba1543c3b9d508c8U, 0xba971f423d137b7fU,
  0x3d34fd833f03ed6aU, 0xba90dc3b3f3691f9U, 0x3e99480838dbc8ceU, 0xbbb5b4793cd86faeU,
  0xb9ba5162b7caa3ceU, 0xbe14d6f6ba4fc0b0U, 0x39a12f4439a4efe4U, 0xb7ca7de8bd10ef6dU,
  0xb65d23b0b9c8c5faU, 0x3e676605b93f5789U, 0xb90c12343d34ce57U, 0xbe993ecdb9a0d7d1U,
  0xb9ccae35b92ac59aU, 0xbb5bd039be3fb055U, 0xbadc78ab39b71438U, 0x3ea1e9853b27aefaU,
  0xba6246a63de43820U, 0xb928ed0eba2fd4c8U, 0x3914173cba2b0f82U, 0x397e398b3e36bc90U,
  0xbd9f1e4bbd838ed2U, 0x37db86bd39741dddU, 0xbae95b21bccac296U, 0x3e14d406be4d2c11U,
  0x3a2a0548b9b62922U, 0x3920815638b3eedbU, 0x38df9c9eb984109bU, 0x387d5cf93a0b875cU,
  0xbed4461e3943862cU, 0xb9e71918ba2213d4U, 0x3b627709b895b4e9U, 0xb71da43338912203U,
  0xbafd189139a8c265U, 0x3b675fecb9a40a0bU, 0x3988ecb53e5846b6U, 0x382f0c81bce04a6eU,
  0x3e1b84e93a0684e6U, 0xb9ec4461b9fc56a2U, 0x39ea396cb987d8b7U, 0x3850b47039845ffbU,
  0x380cbacabeae049bU, 0x3a6e1884ba2d7338U, 0xb879290bbd65be55U, 0x3ef9522738c42aa8U,
  0x39e7a5c33b1740faU, 0xb936169e3aa028b7U, 0x3eaa4f6d3a1810feU, 0xb81ed0c13db897c2U,
  0xb82260cf39bf573fU, 0x3993441b3c0a7295U, 0xb825e608baa22d1aU, 0x3b317f663aeb12aaU,
  0x3e1c5018b796f556U, 0x3a7f7a0f3a892bdbU, 0x3e2a1f7838f06daeU, 0x3b52c3caba84f30fU,
  0x39b97bac3902a00bU, 0xbe51e3afb8bef473U, 0x3a1d08a83b274063U, 0xb8127a4a3af4d2faU,
  0xba6a6be339908903U, 0x3b86f513bdf58238U, 0xb8e49065ba70fd70U, 0x397e9b77bdd85ed3U,
  0x3ce6f8f1be22e859U, 0x381d11403e849d88U, 0x3ddb2d7cb96dfd6eU, 0xbb1cbf45be0d5024U,
  0x381f583a399a868aU, 0xbc56e888ba05ab09U, 0xb8aaf57a3a65a624U, 0xb863bbce3b64aa7fU,
  0xb98ff71939a09dd0U, 0xbe834431365952afU, 0xb8615ff33d7d0b95U, 0xbcd25ce63b962ec6U,
  0xb9a12fd839e6f99bU, 0xbad9f4193bdc0a86U, 0xb982be1e3a64cf7cU, 0x3d16b7813b1ffadfU,
  0x3a848282bebd7e69U, 0x378561373a506601U, 0x3b863e6d38dd70ccU, 0x3ae41d78bdbd6a7fU,
  0x3de3db00bdd9fb67U, 0x398dbb8a39ea63e8U, 0xbb5016303d9a837eU, 0x3dfe6aa23ec9b053U,
  0x3a12ce2039a325cbU, 0xbd3c399839a886c0U, 0x39ff67c239758f17U, 0x39bc6db739906a88U,
  0xbeba32fb3915e52fU, 0xba9db8ed3a32545bU, 0x3b0b89f23969328bU, 0x39dbec153939cbfbU,
  0xbb21979c3a032f93U, 0xb9cd31ec38d32418U, 0x3a30cfd8bda12c84U, 0x39e792063dd75439U,
  0x3ebfd2ae3a95b37aU, 0x39bcde7c39dcb75aU, 0xb9655f4a3716841eU, 0x39031047388b40f7U,
  0x3982dec23d6c3b8dU, 0xbc2161dd39eda777U, 0xb7178e0c3e68d898U, 0xbf31027c39f0029bU,
  0x3a80a935bbb9d090U, 0x391951ffbbd47d2aU, 0xbdc194d63a6cb5e5U, 0x38d749aabd343b4aU,
  0x3984008039b1092dU, 0x3985b5f23e8432e4U, 0x3a1f669dbb337289U, 0x3b148ec43b06de91U,
  0x3dac3129b78e24b7U, 0x3add74b9baf1e5e4U, 0xbe71da2e3980c394U, 0x3aaf1892b9214eaeU,
  0x3a6c82d039892500U, 0x3e7ab5e43a12b6b8U, 0x3a326e993a975b8aU, 0x39596caa3aa545ddU,
  0x3795848d3a6a541dU, 0x394287f53e1e19bdU, 0x3a333d33b84e816bU, 0x3959629fbe259c2fU,
  0x3b31dbabbd334de4U, 0x39da05ebbec5502aU, 0xbdba4c69386b7a5aU, 0xbbe513883bd7454eU,
  0x39ed83e93a2ad052U, 0xbd00832539a37db0U, 0x3a0aca003a8f6910U, 0x39275c7e3a8e4f86U,
  0x3835be35382e5ee0U, 0x3b2b07a238e4cd00U, 0x39b89cc1bd4765c4U, 0xbe6f51a13b898313U,
  0xb8b35de43a1b03aeU, 0x3bd61e953d54fad0U, 0x3a8f8cad3ad74d68U, 0x3d9d1287bc385674U,
  0x3a0b03eabdc0d90dU, 0xb8023bc939262ec3U, 0x3adea8d8b93e7780U, 0x3aba5e38bce731cdU,
  0xbe3fa76c3e1298feU, 0x397f9530b91a0c9aU, 0xbab0951cbc78454cU, 0x3e41eda4bd480edbU,
  0xb984c075b905e1bbU, 0x3d8700c839c28469U, 0x390cdae33a89feefU, 0x39c16d76b935581cU,
  0x3e2391f7b9d83f92U, 0xb90d5e7139e56ecaU, 0xb94b3d443889eb0aU, 0x3716b6243a9fba2bU,
  0x39ed4a00383931aeU, 0xbb3d5803396ed89dU, 0x3781127abecb9195U, 0x3a3447d83da9dfe3U,
  0x3e71f8ebb7107e40U, 0x3a4d839539876fdeU, 0xb990e75537d91ee2U, 0x3910c9c1b9094b8cU,
  0xb9175cd0bd1caa45U, 0x3cb6be8c3a092e6fU, 0x3a47186bbebb0923U, 0x3f1738383932f11dU,
  0x39f4c0a6bb84120bU, 0x3961b10a3c6a3c51U, 0x3cbcaf19b9e7dc49U, 0xb82569803e7b95f5U,
  0x38640bb8b983dbbaU, 0xb8dcfd24bda327b0U, 0x3966bc44bbafd040U, 0xba744189baf2e0eaU,
  0xbe02571d397d002bU, 0xb8f89f83bb8f5e95U, 0x3ed4dad2b7ad7022U, 0xba8a1493393a8b1fU,
  0xb9859bf83a1bdaafU, 0x3e12b08f3a7b587dU, 0xb974a2d3bacb2ee9U, 0x3943aecebb165c17U,
  0x3ae81bd1b8881caeU, 0x3b231c92be135c7dU, 0x38f38e603ad9632fU, 0xb925de8abeacdad9U,
  0xbcf8fc35bd9d2b06U, 0x39bb5454bd075dc2U, 0x3d89421f36957b05U, 0xbc08de79bd1d7e7dU,
  0x3910b095b8dda1e6U, 0xbda17131399d778aU, 0xb9db63b2b99b06d0U, 0xb86f7c053ad9c563U,
  0xb970744539ef0482U, 0x3d9433aa3956119aU, 0xb729575f3e6c9417U, 0x3e835bc0bb2e7ce3U,
  0x398df365b9ad0afaU, 0xbc9f2db0be310e9aU, 0x39d8f60aba0d7493U, 0x3e8baa693c5fd6a0U,
  0x39dcf7713dac6a88U, 0x38af407cb97e3be5U, 0xbae938e7391d8b35U, 0xba658339be0ee025U,
  0x3ecbe7b8be88ba76U, 0x3970fa42ba08113eU, 0x39ead3a13dba517bU, 0xbd828b15beba6577U,
  0xba90e708ba4ad8ccU, 0x3d91b644390d430fU, 0xb910b499bbc4359aU, 0x3958be46bab9c09fU,
  0x3e3124b1ba73a454U, 0x3b366596b8240580U, 0xb8bc8b4e385278b9U, 0xba20c1b33947fe9dU,
  0x3a11c8acbab1fd36U, 0xba95ef74b9a3efdcU, 0xbab7b751bed1bb7fU, 0x3a068c753e53ab64U,
  0x3e4a59afba050660U, 0xb7716f3db98683a0U, 0xbaae81b8b961cb65U, 0xb99f4bbdba2860a0U,
  0xbabc3e64bb9ea772U, 0xbb111b17b9b4015aU, 0x38ae247e3ed09c46U, 0xbe67e5feb83b71bbU,
  0xb9a2a597bb0c8b21U, 0x39a355fe3a369b63U, 0xbe1f8f18ba33ffcdU, 0xb90222e43e0d0a1aU,
  0xb94bff3aba66025dU, 0xba412b373f19848eU, 0x37257eb7bb28024bU, 0x3a040a2439101b60U,
  0x3da780bb380f43a9U, 0xba0c38853a26ea36U, 0xbea96e15bac3f5caU, 0xb991edc43a1f22e5U,
  0xb9add90f3a3b1889U, 0xbe35ba2c3ab97021U, 0xba3b060438ba4e6eU, 0xb9817c3f38640529U,
  0xb9bd3011ba425307U, 0xbb3942553d2fc41bU, 0xba0a869d39dc1f73U, 0xbabb2c0cbd08b7f6U,
  0xbcf5e1ac3f0d9e15U, 0x39b42a77bd70cc86U, 0xbdc88229b9b8ddbfU, 0xbbdca89bbd992805U,
  0x39a18b2db9995df5U, 0x3d562a7bb8a9461dU, 0x39654efcb9b4b406U, 0xb8de91583c866cdbU,
  0xba26eb66398cc561U, 0xbe6da38839308c60U, 0xb99fb953bcc8cc5dU, 0xbe877304ba31b615U,
  0xb96eca4abab10e7fU, 0x3ac0e426becee4aeU, 0x3ade4893b9ebbe3bU, 0xbdc170643b7c922cU,
  0xbabe04b33e5c704cU, 0xb9212873ba8bca8cU, 0x398073a2ba47438dU, 0xb9cf0a58bf141756U,
  0x3d793a7bbe2971b0U, 0xb954ee5839fa9a4aU, 0xbb0029b4bdd0b549U, 0xbb705bea3cb9ef9aU,
  0x39dd76e03a0b59e7U, 0xbc5928c4b780ae67U, 0xb7b0a7e8bab09610U, 0xb819495c3a0ba484U,
  0x3d2999583a54158aU, 0x3999e8e7387af8b5U, 0x3a0afe24b8c19458U, 0x396b1490b70d00bbU,
  0xb9b1f5d93a3149fbU, 0xba0e6916390e035dU, 0x3a02a1cdbe0b15a6U, 0xb92b24a4bd62b8d6U,
  0xbd8d0e7239e67fffU, 0xb8a6b99c391c4ad2U, 0x3a1bea13b8f43d02U, 0x380d13e53a31dc05U,
  0x39791c91be0ba31aU, 0x3a0b814e3a55df58U, 0xb908e24ebecad931U, 0xbe99fdf23984ea9bU,
  0x39d4e0c5bcbd6399U, 0xb932049439a5ab52U, 0x3d5818373a139432U, 0xb804663fbe839c65U,
  0x36e278fb3a58408fU, 0x3a34df0cbe3f991dU, 0xb9a5ee41bb8674e0U, 0x3963a39cba0e6601U,
  0x3dc00c8ab88a2988U, 0x3a2eec8dba02ef18U, 0x3e8d8f5b39c037c4U, 0xb923e329b986c5eeU,
  0x380f697eb9293c8aU, 0xbc9eb4fdba111bf2U, 0xb9e413be38977c2cU, 0x382830beb8c38782U,
  0x378b294b3a05b7a0U, 0x3b9c4b11be53cd4fU, 0x396443f7393a827aU, 0x3a36b819bca85a9dU,
  0x3cd84f4e3d035248U, 0xb8ad54ad3e49e4d8U, 0x3d2e1fe939801ee1U, 0xbb39d0d5bda4e35eU,
  0xb9a6e231395f1b58U, 0xbe4c8ce2b9b9694dU, 0x3a4c8ac13952ee15U, 0xb895cf3fbca6d195U,
  0x38d609d3b7c8003eU, 0x3d419009b85894beU, 0x385c93733c9bdc09U, 0xbbb7d8b3ba88ce68U,
  0xb9913cf43954fbc4U, 0x3b06ee2a3c74626fU, 0x3a0dab7e3a8926e5U, 0xbd62e6343b881277U,
  0x3a637b70be00cf85U, 0xb8cbc83eb911388fU, 0xb91242e8393dea4bU, 0xba01c9fc3db989d3U,
  0xbe165c63beaecb70U, 0xba826034ba04267aU, 0xba2e2e143ea6de63U, 0xbe3cf885be06da4bU,
  0xba72c8f4b9bac69aU, 0xbdcdae96ba106519U, 0xb9a06cf1b9a9a436U, 0xba32d48fbac4822eU,
  0x3f1c40c0ba2fbd6dU, 0x3a07b604b9681067U, 0x3a3061e6b9d0d3b0U, 0xb9ffae24ba108507U,
  0xb96537ceba41df40U, 0xbc0b4036b9ae6b90U, 0xba9d2f05be80e9f4U, 0xba9b407b3f1e62f8U,
  0x3eba7d2fba2bbef0U, 0xba5f01feb8b3eb74U, 0xba64e778ba1c6d35U, 0xb86eaadbbabcd851U,
  0xbae648073dd39d97U, 0x3ae49f093a185e6fU, 0xba054b3abf63c852U, 0x3dc7c6d23950d2c0U,
  0xba82ecac3d95c7e2U, 0xba30498a3be0d8ffU, 0xbd65f15eba058295U, 0xb90af324be69b8c9U,
  0xb8f984acbab76bf5U, 0xba88343d3f507f02U, 0xba505cebbc0fb49aU, 0xb9ceaea8b8b6b922U,
  0xbe075317ba2ec864U, 0xbae18819ba9b6c1aU, 0x3f03aabfbaacea5fU, 0xba2c93d1ba136844U,
  0xba1f44e7baa946acU, 0x3e99aded396840daU, 0xb9011ffc39a9599eU, 0xb7ac380c3a2c9cf4U,
  0xba355be9ba5ab2a3U, 0x39797ac53dcf04c0U, 0x37bd000fba6223b7U, 0xba988fffbda1fee0U,
  0xbb90ce443ea4b0bbU, 0xba826695beae29edU, 0x3cf04999b9c787abU, 0xbb0d8ad03d944b06U,
  0xba0d8fb8b94fa4b3U, 0x3e5877aeb909506fU, 0x3926ce3cba4a3b28U, 0xb6891349bbb43c92U,
  0xb98ae8d1b9ee3308U, 0xbe2ff051b9869477U, 0xb9713de23df7a8d1U, 0xbe86493cb9c705deU,
  0xba11690cba5af750U, 0xba821cccbebcf506U, 0xba24faadb907b350U, 0x3e912fa93b06c388U,
  0xba859ab93ebafdccU, 0xb8369e26ba776b42U, 0x3ac48f49ba99ec52U, 0xb92c9eb4bd65e95dU,
  0xbf482aa83ecec4cfU, 0x3930f2263938886bU, 0x3b171ac73de91dc5U, 0x3ee0b21eb8fdc2dcU,
  0xb9c8341cb9aaf87bU, 0x3e2e33cf393673b5U, 0xb50c08f8bb7092a1U, 0xb8c244d4b973594fU,
  0x3e402c143995ab87U, 0x3a913044b8cfb023U, 0x3a4ca496b97c1fd7U, 0x39b77dba39804913U,
  0xbaa8ae15b8b64a27U, 0x3a7a634db92923f7U, 0xb79fca30bed5a1dfU, 0x39a994853ef1c9c8U,
  0x3ee373b039feedf3U, 0x38444cb83811cc71U, 0x39acfeed37fa5875U, 0xb8260735388b4cb0U,
  0xb8a5429a3f58222aU, 0xbd32ba8c398a2ce7U, 0x3815d8833e4a1b6cU, 0xbf03e55eb911e3a2U,
  0x39c973e43c6ee6e3U, 0x3926b289bcfaedb1U, 0xbe36763c38fcd197U, 0x37d2c872bd395f1aU,
  0xb8361ff8398f6b3aU, 0xb93072f93f44ba2fU, 0x39b59736bac70b63U, 0xbabe9be9b9f2a953U,
  0x3d8daa8839f5ba1eU, 0x3a1a7d83bb1de1d9U, 0x3d9739053a1dc778U, 0xba59b24c382092beU,
  0x370612b8390ac772U, 0x3ea4e3bf3ab4a678U, 0x38a328ed39e0caceU, 0xb88f1e52ba1553b0U,
  0x397ad74b3a212139U, 0x380508dd3df8ee45U, 0xb93fb77937869b27U, 0xb9f9b0eb3e90dc12U,
  0xbd0fcaf2be94345eU, 0x37ae5a4cbf469b1bU, 0xbe0bc20bb91ab92eU, 0x38f6090f3dc21cdfU,
  0x39effc49b93bddc1U, 0x3cc35fb1b93306c6U, 0xb917afc23a11f644U, 0xb92519c23d2b2da7U,
  0x378a712bb94f6a3aU, 0x3df3a115393d47dfU, 0x39151b7c3dcc7f56U, 0xbf248c553b3f549aU,
  0xb937564b3a0ffd6dU, 0x3d1bc6cdbeba63cdU, 0x3a21beff3a56adc9U, 0xbe15ca1bbd04e356U,
  0x38fbfc8b3e568232U, 0x37886266ba04a49fU, 0xb821f7cdb83afa53U, 0x3a5a350cbefb8c1fU,
  0x3ef947573c938544U, 0x3919939539fd89c7U, 0xba596db53d22db2fU, 0xbe5f4d0d3eed6db8U,
  0x38578741b542a03cU, 0xbbf59bf9393302fdU, 0x3829fa45ba543f6aU, 0xb7d025ffb882e920U,
  0xbe827df7b93b508eU, 0x3ab89285b94f3759U, 0x3a33d5be39a35f0eU, 0x39af59943a02c6e0U,
  0xba7094d4b9c572c3U, 0xba8b3f0a39b92baeU, 0xb8cfa7f3bd2faa4eU, 0xb92f1391bec42c79U,
  0xbeb4218f39243d4fU, 0xbab439913824b136U, 0xb886abfeb9b80895U, 0x38e3392639c7ecc2U,
  0xb8fa3e57be474542U, 0x3c3c7b7abaaa4b2fU, 0x38dca50abe988313U, 0xbe9a651bb89b9fc9U,
  0x39846529bc3f78b1U, 0x37f780973c7ad3afU, 0x3dc15e0b39ab5eebU, 0x38935b94bda1dc6bU,
  0x39af7d4db607dc48U, 0xb977b7d43d9c79e8U, 0x392ad15039b82b06U, 0x3a19d55c3a3b5ec4U,
  0xbe6e1bc6b83ddc6cU, 0xb93d9c24ba8479adU, 0x3f4ead08ba1af511U, 0x3a2b3052ba12c053U,
  0x39e463233737f679U, 0xbd8121d23b0ba05fU, 0x398942fc38b93598U, 0x38531e4c3a57f0beU,
  0xb916e8b1b733cd49U, 0x3baeb073beb9f152U, 0x39e73cd9ba31728cU, 0xb902735e3d227b8eU,
  0xbca1e0d93f0284dbU, 0x3995e3f53e43b695U, 0x3e815ff239f2718cU, 0x3a820a233d2579f7U,
  0xb894acbc3815c337U, 0xbee464e2b9648159U, 0xba9b515538ddfbf6U, 0x381cb987bc8d74caU,
  0x38cfed14397e3729U, 0xbe8110bcb90aacbaU, 0x394292b53e7b81ffU, 0x3df748863a1f3bfaU,
  0xb9723cd7385d72e9U, 0xbc21978c3de46231U, 0x39838aad39285fd3U, 0x3e82b0303c50341dU,
  0xb999f92cbeed1365U, 0x388ac3d3b9dd8f94U, 0xb8de3099b923929fU, 0x38d6a3633cabd0a8U,
  0xbf10444b3f018a45U, 0x3975c1bab9370ed5U, 0x393c7e003e910dc1U, 0x3e3aee613e89dc5eU,
  0xba9cd9c9388fde27U, 0xbe0fd6b4b987c3f3U, 0x398461ed3b22ac25U, 0x39447eb3ba3c5d5dU,
  0x3eb5e064ba06e325U, 0x39e2b309b84bb3b9U, 0xb888651a381ea33dU, 0x395dcc42b9fdc5caU,
  0x3b54cba5ba8ffa33U, 0xb9b703d6b8bd2a21U, 0xba659a1abe1eaed0U, 0x390fd24abcedccfeU,
  0xbd76c978b83e78b3U, 0xb91676e639d9c8cbU, 0xbacefcca399c295fU, 0x380c4492b969c54aU,
  0xba110c003eed5fccU, 0xbcc5db58bad1432aU, 0x387ff198bd9a4e47U, 0x3f505bd03921c95cU,
  0x3a01665d3ba60772U, 0xb90a92c7bc801cd5U, 0x3e752f0f399c289aU, 0x38afbed63e03ee9cU,
  0x394f807fba4902dcU, 0xba143a6e3e861376U, 0xb964234b3afbe8aaU, 0xba5828c638e70fceU,
  0x3d268f8938d1cd03U, 0x39adb09bb947f948U, 0xbe061177ba81d5c7U, 0x3b0deb173827631dU,
  0x37daf4c7378beec0U, 0x3e88ab93b9db333eU, 0xba190287b9429b8aU, 0x38e9786539e2f688U,
  0x3940e83cb9694fe2U, 0xbbf777dfbdf8d216U, 0x38727e203769eadeU, 0xbaa8c4543f23112fU,
  0xbd5ea41abe05f5a4U, 0x38971811bf258754U, 0xbee221b439727d25U, 0x3bf59ca73e317d06U,
  0xb98b5005b86e6644U, 0x3e6161b23931f4cfU, 0x38c5986e3ab5b076U, 0x381438413c8c70c1U,
  0x393e9febb8ac1228U, 0x3cf2903eb806db10U, 0x3837cd6a3ea1e6f3U, 0xbe1bfe7b3af15285U,
  0xb8b0633aba8488b3U, 0x3ccd5c41be224813U, 0x3a91978cb9cc68ffU, 0xbead3bd7bc88e437U,
  0xbaf0eede3e7f17aaU, 0x38cd6146ba64b236U, 0xb86f6885ba749af2U, 0x3a0bd2b9be846cceU,
  0xbdd346c5bf0ece56U, 0x38511e66ba27ad05U, 0xbb6e76c1be30fc12U, 0xbd8cec9cbe7a1ddeU,
  0xb9798550ba11d1ffU, 0xbcc3be0037760f9eU, 0xb9b44efbbc19a04cU, 0x3840dcce38ee4112U,
  0xbe8d5812b9c72049U, 0xbabaa4953a00ff9dU, 0xb90cd5e5b8b2f6a3U, 0xb9da8ce33a3cb545U,
  0xbb4172dc3746f06cU, 0xba1b7e85b8e41f5bU, 0xb9a66aa03e4e242dU, 0xb7443878bd743b95U,
  0x3dce3f7cb97f8385U, 0xb960703937561ecaU, 0xb98ef599b5f2550fU, 0xb936b7c9ba06b164U,
  0xb8a262e6bf397885U, 0x3c263060388d6fb4U, 0x39366f4bbe2eb234U, 0x3e70b2a0b8dbc337U,
  0x386619abbc711a0fU, 0x38fe44d23c037a49U, 0x3bb96e78ba38856bU, 0xb99e4a18bd9db528U,
  0xb92397b9b9359bb4U, 0xb9be3a33be0746a3U, 0xb90e8646bc112d6dU, 0xb9ff252a37e7877bU,
  0xbcb962a8378117aeU, 0xba673332bc1624d7U, 0xbe73e40938f5325eU, 0xb9fc2fee3a2be0aeU,
  0x3994c7ccb8e7c9afU, 0xbe0c3be63baa92f9U, 0xba87bb0537d5d387U, 0xb9b448cc3a178a81U,
  0x39740842b998d37dU, 0x3b11ffe8bd496685U, 0xb91e451e393bff70U, 0xb8418579bf1de35cU,
  0x3b94c8063d28d3e2U, 0x379e62b3bc86b259U, 0x3e6f8696b909e3a2U, 0xbc36c36cbe84fb77U,
  0x393b3481b9a63186U, 0xbe7bb2fb38c51205U, 0xba7ece23ba2eb2dfU, 0xb8c792edbd1ec982U,
  0xb777b1ff39bb7092U, 0xbe8259b03988f599U, 0xb935cee6bd251957U, 0x3d9a6cdbba752739U,
  0x38c07e09b90bb282U, 0xbc472981bd6a6f3aU, 0xbad8cc0dba56ff38U, 0xbcd6cd813c2e3940U,
  0xb8367d07be685c0dU, 0xb9ce13a2b811cb3bU, 0xbb19bda0b951ad6fU, 0xba035ba7be38b9aeU,
  0xbef966f83e48da7eU, 0xb9c96cedb9b63c63U, 0x3a4ea74cbd80f3f9U, 0xbe941b673dae1135U,
  0xbac54404ba42f481U, 0xbdb50924b90194a1U, 0xb9132e643a94e68fU, 0xb917ddbeba8d67cbU,
  0x3e8fe5ddba8a5144U, 0x39dc9d9739c09db9U, 0x390300eab916b7b7U, 0xb92da630ba21f00dU,
  0x3a92ea6fbac84e77U, 0x3c1c4309b9beedbdU, 0xba9c542abdbe14a9U, 0xb9feb1163dbf89dbU,
  0x3dd6e8c6b9a205c0U, 0x3999ac10b920ddd3U, 0xbab5189eb86925d8U, 0xb90904ebba66e273U,
  0xbad542b13e5b3fb2U, 0x3b14233038d5d8d8U, 0xb98730c33d990d46U, 0xbd6bbf24b89be70dU,
  0xb85398153d10fee8U, 0xb9972a05bb491edbU, 0x3dea1671b9ad9df0U, 0xb7a9d0843e60b458U,
  0xb8b6f6c9bad19b19U, 0xba8861fe3c06795bU, 0xb9f09a3f3b9d0818U, 0xb930cb68ba0994abU,
  0xbe4a3291b9b698cdU, 0xb9fc50bf3b379abcU, 0xbf2fe961ba9b0267U, 0xba2b418db9df8b4aU,
  0xba0b7dd1b725837fU, 0xbea2aa06ba6e01b6U, 0xba1c1b34395c309aU, 0xb94925e8b6fcdab0U,
  0x389110d8ba8314b9U, 0xbba828bebd405e6aU, 0xb973f5283aa2ba29U, 0xbab748003f15c680U,
  0xbd52ea2dbe333e2bU, 0xb9e8fd2bbee615eeU, 0xbd6f6313b9063a3dU, 0x3a9998a7bda1ab75U,
  0xb9c2857bb9f20ad1U, 0x39588b96390b87b6U, 0xba25d253ba1c903dU, 0xb8a324ea3c120e69U,
  0xb91c5a15b86a2edaU, 0x3e9d93dbb8db9e2aU, 0xb9082edb3c2dab48U, 0x3cfa1882ba8d5a63U,
  0x39e122aaba7c0c87U, 0xba0d896abf1c59c1U, 0x3aeb14eab624c07dU, 0x3d7841babb306153U,
  0xbb0678cd3e4416b5U, 0x3588452dbaa94a29U, 0xb72fb162bab1fd48U, 0xb99e4271be890d1eU,
  0x3e29a620bea5559cU, 0xb861ba61b9d2eb2cU, 0xbad045e13b1c3a5aU, 0xbdf1c6093eb69a27U,
  0xb9a536fe3a32ab4bU, 0xbc218932384600bbU, 0x39bd4fd0bb6436b1U, 0xb6fa6b37395d2cb1U,
  0xbf1892cfb9ed3cd3U, 0x3afc3c36ba5f4131U, 0x3b19244bb87b6e94U, 0x3919d32f39936dcdU,
  0xb98ec4fd3655d36eU, 0x3cbc68b839215cb2U, 0x39c4dccc3ef58681U, 0x39d91576bdc5fbf0U,
  0xbf055dcdb82fe256U, 0xbb41110fbaa31377U, 0xb9956cf3bab03f34U, 0x38b7e2403a49f527U,
  0xb8f5a2e6bea39361U, 0x3ab50ab3bab20de3U, 0x3a1229273f172a05U, 0xbfb1159fb829bba3U,
  0x3a32e3c7bc80dc5dU, 0xb8b6e8993b7c2083U, 0x3eba51043a045356U, 0xb9417b2b3e485840U,
  0x38ce9c1938c2324fU, 0x390b9ea8bec87536U, 0x397218e339286a88U, 0x3b2456533b7c1f85U,
  0xbcae5e773957dd59U, 0x391769343bbd7bb2U, 0xbde6766d3a1e49d4U, 0x3c0103b1bace63afU,
  0x38599343b7abdec4U, 0xbe9f8a6a3a9ec29aU, 0x39d13c963bc878e0U, 0xb74b38d33aa58032U,
  0xbabc00db371f1cabU, 0x390e4769bf45c0daU, 0x3959c02bbb1acd99U, 0xb921f4ac3e19a706U,
  0x3c5c861d3f10fad1U, 0x38b3fdc33f32b5e5U, 0x3eeebffd3995ccf3U, 0x3bcd01a4bdcaeb50U,
  0x372c508bb882d6bfU, 0xbe6c940eba93557fU, 0xb9cfc19d3add0527U, 0x3797da22bd852db5U,
  0xb8cc755138422f9cU, 0xbd03c854392cc37bU, 0x386377cdbec72fb7U, 0xbcf6fb5c3b924ae4U,
  0xba810253b959298bU, 0xbaa896273eda22e6U, 0xbb18155cb9b09408U, 0x3d71aaee3b87bc73U,
  0x39bf167bbe92c9bfU, 0x3884cfdbb904ad67U, 0xb80bfd1138f1e827U, 0x3b3c1cc9be88809fU,
  0x3e3e4efdbe20a63bU, 0x38a1285ab9b4f5d8U, 0xba90d9a33ded74e5U, 0x3ef7ef753eff0513U,
  0x3891e30ab9eef722U, 0xba6b031738962c6aU, 0xb892a9a23b20ab09U, 0xb8d779a6b97dfc89U,
  0x3ef1cecbb964773fU, 0x3a41cccfbae3d4f2U, 0x3ac8c777387c0d99U, 0xb76ec9e93a062134U,
  0xbadbcd3636d0ad72U, 0x3c70cbba39bf4a35U, 0xb986e56a3e752a2cU, 0x37f4ae5a3f08bfd4U,
  0x3f61aab0b9a5fedaU, 0xbb1bddf8bb3141a2U, 0x3967b299badc711cU, 0xb829daa8ba519293U,
  0xb9f0460cbe9b2362U, 0xbb219ac0bb130ad0U, 0x3a1d4a453b2f8fccU, 0x3f2b0c6a38d0aa4dU,
  0x3a1a8584bb9d3550U, 0x39aa2987bb5b420fU, 0x3ec8ed75b981e02eU, 0x38119d243e4ca077U,
  0xb88ffcd13a108c58U, 0x38e29d21be21bf53U, 0xb924445fbb1e9c55U, 0x3a6a01f23ab17536U,
  0xbc109681b850f9dbU, 0x37d7f3babb9ec3bcU, 0x3d39de3ab80df3ccU, 0x3b98ae7dbb3a53fbU,
  0xb9fd5d6eb8539e03U, 0x3d8ddb06b9b6beb4U, 0x39d88eea3b7af3f1U, 0xb75f62cc3a9f0df5U,
  0xbafea33cb8db8520U, 0xbad44e9a3c22c3f2U, 0x38642023bb23726bU, 0x38e900213e57d298U,
  0xbd581f023eba776dU, 0x394e8668bef676fbU, 0x3e05d98e3978103cU, 0xba82783abd762991U,
  0x38cf3774b8b03468U, 0x3e682701baf03195U, 0xbaa22de13ac58dcdU, 0xb8a6e316bc8435deU,
  0xb80726bf398c2c01U, 0x3e72a3e5386f23a9U, 0x3901e9fb3d919407U, 0xbf2317733b96fa39U,
  0xbacdd8f0b8f27040U, 0x3b573648bcff52feU, 0xbbde963038a5f9b2U, 0xbdc0124bbb88ca94U,
  0x39d3f2fbbe465984U, 0xb76e4d5539e2efc8U, 0xb9c80a873a001864U, 0x3b09d55ebb710f59U,
  0x3ed7f628bea66f22U, 0xb95d465aba52bc1bU, 0xbb2ec4d2be0f9ba7U, 0xbebdc4efbec95c95U,
  0xb9841a34ba2ba3c7U, 0x3d55e653396a3a09U, 0xb9816d75bbc3c3faU, 0xb9be7564baa1b9bfU,
  0xbed1defab9c2ff76U, 0xba3b406fb9077b91U, 0x39f04338b94f68d4U, 0xb9c38d6839aaf620U,
  0xbaca6791b96c220eU, 0xbb8b9719ba4b8a7aU, 0xba38aba23ea48c58U, 0xb686ea883eb29781U,
  0xbe03a956ba6f81a9U, 0xba3f60b2b8981378U, 0xba1ca3ac38f71a2fU, 0xb9ba2f33b982c2d5U,
  0xba34674dbf014e63U, 0xbaa6266dbaf8d5ebU, 0x39c8fe14bf2cc583U, 0x3f127080b9129899U,
  0xbae39f63bb9631acU, 0x3932a9f639063a2bU, 0xbe125996b9e49d46U, 0xb9a89865bcc4cedeU,
  0xb9e174b1b91a9277U, 0xb9e538eebf83996cU, 0xb8a7a9b23a34bda8U, 0xb9fa8327ba13f84eU,
  0x3d20f3bc396bccb9U, 0xba8121eabb62db71U, 0xbf9e5609ba22a187U, 0xb991552839228687U,
  0xba09a1afb6c6e233U, 0x3de128293b2f3e46U, 0x3997c36ab8ae112bU, 0xba12fd6bb9ae7014U,
  0x3a2d7313ba1516fbU, 0xbb68a69cbf1939f0U, 0xb9a86f4fb98923a6U, 0xba60911cbe835216U,
  0xbc3377533f091975U, 0x374a8a51bf3535dcU, 0xbe11a0e3ba5b74e0U, 0xbb08dbf03e1358a9U,
  0xb87f238d3a01900eU, 0xbea697bbb8ed15d7U, 0xb79cc8c0ba957e80U, 0xb91b33d0bd0a9529U,
  0xb9d7a5a339dee2f7U, 0xbf0c4edf3996c57fU, 0xb9f3cafc3e99bdbdU, 0x3e3219f5ba833cd0U,
  0xb8d0c718b948b270U, 0x3b8bfd213ce9a899U, 0xbb4ad3d9b8b63f73U, 0xbd4f29483b1ad673U,
  0xb9ad51383e8a58f9U, 0xba1a130db9ad0b92U, 0xbadabd21b9eabcacU, 0xba2119c0be4fdd6cU,
  0x3e2a4662be8702e6U, 0xb9b3cfbcb9b77e8fU, 0xbbf1c0e43de20298U, 0x3dcd7884be82f524U,
  0xba1f290dba657848U, 0xbd12f57037d2e506U, 0x38d562cbbc0c4d55U, 0xb8c27337ba0604fdU,
  0x3e84f9f4ba20761dU, 0x3aad02f6399ad4e5U, 0xb9190bd3b9b76505U, 0xba15ef4b3987b550U,
  0xbbc0bbffb9a0324fU, 0xbb7a7ad4b99c3e6aU, 0xb9d43accbf074b58U, 0xb8b378993eabbddfU,
  0xbe7ebb2eba6179a3U, 0x3a8de5693979970dU, 0xb988c54fb925b7f9U, 0xb9d01e4bba97c694U,
  0xb98e405b3d9076b0U, 0x3a059db7ba8a8d05U, 0x39927598be8725d5U, 0x3e260e8837bbf2e1U,
  0xba350a4e3ce025b5U, 0x398376933a7a5c55U, 0xbdd0a8cdba4e45edU, 0xb98edc0e3d78de7bU,
  0xb9ea7b18ba22b21fU, 0xb8918a2bbec7f384U, 0xb9e0a6e9bc82f032U, 0xb926e666ba18c916U,
  0x3e380eb839acb317U, 0xba68a0dbbc82630dU, 0x3f8654e3b9fdaae9U, 0x3a12c3a2b9e63524U,
  0xb9729e84b8ca0ff8U, 0x3e7efa3e3b389d5eU, 0xb9c145aeb87f0a63U, 0xba181e7c389d0af2U,
  0x3a1c928eb9a87950U, 0xbaadc6363e35c947U, 0xb9dcea1f3a2ee8b6U, 0x37eaf3d6beea7d1fU,
  0xbd758bff3ec3c788U, 0x38c94455bd9ee9bfU, 0xbd8a9a0fb9f5981eU, 0xbc26efae3cfaab9bU,
  0x398e910dba8ea235U, 0xbde23a193a0388e0U, 0xba2855463a63a02cU, 0xb8feb550bcb3f662U,
  0xb9c844d539cfe992U, 0xbd9065ed393d6fe1U, 0xba0bb4c7bcf8bd86U, 0xbe9dd9b43a547a89U,
  0x390df417b95f195aU, 0xbb4affdfbe82b0e0U, 0x3a2ba77cba515e69U, 0x3d31762cbac4c818U,
  0xb8fd8df03e1ad339U, 0xb9d597e9b82f6e00U, 0xbab74851ba1ddf06U, 0x38aeb5c1be9128aeU,
  0xbddc9c063e72a975U, 0xba56a9e5ba112576U, 0xb973bc21bc3325bfU, 0xbe3e51883d044b24U,
  0xba82cf96b9d7d7a6U, 0xbe0f2d74ba00df08U, 0xb935817cbb52ea4dU, 0xba36f1c2ba73fde3U,
  0x3e175c88ba109a21U, 0xbb93c2d138acd4b9U, 0x37d64aacba03b619U, 0xb9be55e4ba2484b1U,
  0xb8af2cd6b9974db6U, 0xbc18a911b9d8aaebU, 0xb9d0ed57be093464U, 0xbaa9d56f3e8383a4U,
  0xbee60cd6b9e786a8U, 0xb794528439dd51cfU, 0xba5da524b9dc2582U, 0xb91d205bba3847b3U,
  0xba88afb43e80ffc9U, 0x3b277de0ba90c378U, 0xba30d7823ebeac43U, 0xbe8ff1603925e582U,
  0xba64f3d93b17303fU, 0xba2e9af63b364e5fU, 0x3e6015d63974ab5bU, 0xb873bc26bdb19dcdU,
  0xb9d6fa15ba48a2d8U, 0xba45b81e3be53d08U, 0xba1dcaebbb9e95fcU, 0xba4109793a29000fU,
  0xbcdcc6ddba3292a0U, 0xba92c11a3a80a483U, 0x3eb5eb1bba3f7458U, 0x3a007bcbb9289b8aU,
  0xb868948ebaa818aeU, 0x3c87a10c3b9e525bU, 0x396c91bbb9177235U, 0xb87ab00d39beaaf7U,
  0xb91af7b4ba259c19U, 0xba315ac43e7f1750U, 0xb9894e7aba7b9d60U, 0xba23532f3d1c4124U,
  0x3ded7509bea0f0cfU, 0xba84628abe953475U, 0xbda69b54ba06efc1U, 0xb9470301bcc26476U,
  0xb9fd6f29ba05ad4bU, 0x3bc2ab15b91cfac2U, 0xb9df4195ba3e5b3dU, 0x37ae1dacbc95bbb5U,
  0xb9059145b9e06859U, 0x3ea5e9d2b97d6febU, 0xb94cae113e062decU, 0xbf212cbbba39ff7bU,
  0xb9785739b9eda0b0U, 0xba8a9376bd40e600U, 0xbabf938239f85df9U, 0xbd8c29b73b01f1bcU,
  0xb9d119c1bdbfbc5dU, 0xb96a03a8b9f9131fU, 0x3acf7f24ba19655aU, 0x398da1c83e1efb44U,
  0xbe1c0136be6b704dU, 0xb9acea2db9a2e50fU, 0xbac5cde6be3d8069U, 0xbe45d29abe2e8660U,
  0x399977f23958b8deU, 0xbcac172fb9460d2cU, 0x393ff8cfbb1f976fU, 0xb93e746d36b24ed1U,
  0x3ecb4d9539e61a63U, 0x3a64651b39d83077U, 0xbabace5cba1a5aeaU, 0xb939a313b9ac9ae2U,
  0xba5b7e633a48b647U, 0x3ae989e4391a8167U, 0x39a70f443dcdd3eaU, 0xba07f8c2be0ee9d4U,
  0xbebcd37e38f0d613U, 0x3a337f1038d1d42dU, 0x39998fcc39f470f0U, 0xb7918b91b993c9a2U,
  0x376155493e864930U, 0x3b8653133ae7b702U, 0xb99a130dbd02c439U, 0xbf6ce6c338fb1e33U,
  0x39287353bca92e1eU, 0xb93aa63c3c1c8d9aU, 0xbe273c8439aa6d35U, 0xb85f3f21be6b33e8U,
  0xb9ab52a839cd7825U, 0x39b5f642beab6e69U, 0xb99391a2bb9d58d4U, 0xb9f9f906b9a9d673U,
  0xbd47599bb9255891U, 0x38e5f7b6bac0e163U, 0x3f4961843a2cfb08U, 0xba1b1a893a3b6f78U,
  0x38ca1607b9c259b5U, 0x3d8443733b6f7925U, 0xb99597c2ba1c2510U, 0xb9237eb5b9f74de9U,
  0x3a560f3f395548e4U, 0x3b1cbc28befd0796U, 0x3840e4e63a792427U, 0x3a128c8cbea3a3a6U,
  0xbcf1c4be3e6116dfU, 0xb9f5f1273eb5d996U, 0xbd091d1338a0c3ddU, 0xbafc31c83b2a18b2U,
  0xb9a9284639b341ccU, 0xbeb619fdb92feebeU, 0x3a596d69baf52af4U, 0xb7c445a3bd383faaU,
  0x3931bfcbb9922350U, 0xbd44dc19b91c0133U, 0xb93d85193d9e44c2U, 0xbb153a5dbb763e37U,
  0x39e7248439a68ef8U, 0xbc2a72f83ef055a1U, 0x3a21fe13baa09655U, 0xbca161843c0b5997U,
  0x3a1432c6bead5667U, 0xb93438f239222fbaU, 0xba76f00b3a327954U, 0xba5567ae3e841d9fU,
  0x3e39eed23e0cb4f6U, 0x397c918339d506b3U, 0x3b54002ebce34d06U, 0x3dd98e343d88a0ccU,
  0x38ff97a9b8a219f3U, 0x3daf5b693901d812U, 0xb8f4e7a1ba2b3df2U, 0x39c4dc05b7fccbf2U,
  0xbd2a8b273955a90aU, 0x3a6719c5b75f38b5U, 0xbae26b0c39ca6812U, 0x37b2d2653a0c0316U,
  0x39b1f3f438adcb7aU, 0xbba65b3fb921e5baU, 0xb930dc64bea5762aU, 0x39c509b03d15902fU,
  0xbeacadd4393cc983U, 0xb934ed19b87d51a0U, 0xb915b762b995c4fbU, 0xb7d358343882b5c8U,
  0xb8c03093bd22b0b2U, 0x3c8fd919b9dc1de0U, 0x3784dcddbf06c438U, 0xbe936eac394dab89U,
  0xb794e22d3c826477U, 0x397f2d323c8ccc98U, 0x3ba6eae3b93f034dU, 0x376e29ac3e054d9eU,
  0x394699e3b9a19765U, 0x391287c0be7cb6d7U, 0x394715e03bd541bcU, 0xbb126017ba48aa20U,
  0xbe07361839b4f09aU, 0x3965c1cc3bcb1c38U, 0x3f655e28b98861c3U, 0xba9bd41439afc093U,
  0xb85fce083a05e024U, 0x3c4f8a9fb97689c6U, 0xb922b57eba9ff8ffU, 0xb83f2013bb2709c8U,
  0xb962369d39777d61U, 0x3b0a673fbdbaa11cU, 0xb8a11130bad3b49fU, 0xb927cae93f73cca6U,
  0x3b904510bdcb9d76U, 0x3996dd5f3e4a9ae7U, 0x3e832df437fd3bceU, 0x3bcf5e9abaa97c99U,
  0x3962d41bb8fbbab9U, 0xbe29ade0ba1cb1e9U, 0xb90d8c0fbabd8315U, 0x3875d335bb2a4bacU,
  0xb861b24db8f5ca5bU, 0x3de8cdb136899a08U, 0x392cef3b3e02d26aU, 0x3e87a193bb2760ceU,
  0xb92bf3a8b92acf7aU, 0xbc9027a2be02093aU, 0xb9ec8d79b8715c05U, 0x3b82dfa43c94ef8cU,
  0xb7ad1affbccd32ebU, 0xb6fdaa24b8da2b49U, 0x3a9e3c52b87e418aU, 0xbaed13b0bde8e252U,
  0x3e88b48cbdb20349U, 0xb92bb83cba3165bdU, 0x39f785f03d226846U, 0x3e499cbbbe8b51eeU,
  0xb9f599d7ba151ac0U, 0xbc462ddbb88e34b7U, 0xb9a31e3bbb8be54aU, 0xb89e65f1b9a9997cU,
  0x3cb0fc25ba3fb3c8U, 0xba40cd4239addeb3U, 0xb930e3beb909e38cU, 0xb98338883a8e36eeU,
  0x38e8815bb99c8402U, 0xbb2ef84a38b46461U, 0xb8580554be5d7e70U, 0xb8eab18c3d3c188cU,
  0xbca28d33ba9494bbU, 0x3a400c133a0e1615U, 0xb9f114a4388e4dd4U, 0xb99cf278ba9ec6a9U,
  0xb935c7fd3ec64d68U, 0xbb9001daba4c28d5U, 0x3a0142cabeb74763U, 0x3e705461b991fea2U,
  0xb6f92af53be61d55U, 0x39842b3fb9c64a62U, 0xba5293b7b947d789U, 0xb9ba83703b71f597U,
  0xb9e7f5e0b9282c76U, 0xb9ad8da2bd2a6da6U, 0xb90235a4bb3171ceU, 0x3a0ac79339e0281cU,
  0x3d3873a8397b19e1U, 0xba617394bba189dfU, 0x3f1173c6b9682edbU, 0xb83ea0db3940524eU,
  0xba13ffceb7e2d5a5U, 0xbdeee21f3ab4cbd1U, 0xba097b0e37eeff10U, 0xb9a7f6293a480d1bU,
  0x3a6a0d06ba17fa90U, 0xba98c26f3d038830U, 0xb9bf2f3e3a062b19U, 0xb9a167b43cbb3d0fU,
  0xbc42bea73c70d1eeU, 0xb6d0843ebe6013f6U, 0x3da9dd3eb91c9d1eU, 0xba7adb2f3dcc522bU,
  0x39eff6fbba939f6fU, 0x3e4a370a3838aa49U, 0xba3c1ee33ad727e4U, 0xb95cda97bcd1fd90U,
  0xb9f874cd39617392U, 0xbd5a2b3f39f38fa6U, 0xb9e05c3cbb23acdfU, 0xbee97db037f6fec0U,
  0x39d30fcdb6dcb658U, 0xba403863bd29c830U, 0x3a48b13bb9a170fcU, 0x3ab6d11f3b7fc66dU,
  0xb83cc4a43e3d5798U, 0xb9bbdf81b9bf0e96U, 0x3a5b4430b7a58877U, 0x39a4333dbe114846U,
  0x3e1e5aa4bf2a5d94U, 0xba4997d4ba32b893U, 0xbac18deb3d29631aU, 0xbece44f7bd046166U,
  0xba9dc421b89685efU, 0xbd48b48bba0f8994U, 0xb8c625233a8de21aU, 0xba1e7612baca366eU,
  0x3e9be49bba8491bdU, 0xbae18911b913a3b0U, 0xb8fcf32db970a92fU, 0xba18eab6ba7a6574U,
  0x38cb41bcba446677U, 0xbca6df39b99c0da8U, 0xba99f774bcdae5efU, 0xba8d8e103e3688dfU,
  0x3eb70f4db9213d4aU, 0x3957aa77ba1a9784U, 0xba89ad7dba64e29eU, 0xb8ed2068baa4be72U,
  0xbaaf309a3e2169f5U, 0x3aa9e1033a453c76U, 0xb9ec8caabdc1f164U, 0x3f39d96b39084b49U,
  0xba3e889a3db85729U, 0xba5ddc1e3b5733c8U, 0xbdacf198b8a8cf36U, 0xb93389483d2b5a95U,
  0xb9789995baa84de5U, 0xba6bce2e3c2f03a2U, 0xba2a1a67baefdfe4U, 0xb9168639b973f58eU,
  0xbe29c34bb9d959a7U, 0xbaa69e39b9ed69deU, 0x3f228134ba86c636U, 0xb7e0057eba139c20U,
  0xba33e1febaa060deU, 0x3e9d3d103ae54c7fU, 0xb9c7b5feb97eb5adU, 0x3643f0fcb9b4a8c2U,
  0xba37bc88ba036665U, 0xbad1e2013e91d36fU, 0xba10f54cb9b3fd3aU, 0xba8980e1bcbda2f8U,
  0x3c67098f3e0e991dU, 0xba8a5fa1be9800f1U, 0xbd2dede1ba62b32bU, 0x39bb1949bd485129U,
  0xb9dc4d04389d009eU, 0xbe3b59d2b907abd1U, 0x3a3961f039106449U, 0xb8bb585cbcfd94e8U,
  0xb8e4fcfab7c907f2U, 0xbe4c0db2b97cdb37U, 0xb98a01a23dff7ea6U, 0xbed05aa9ba152bc7U,
  0xba07afc7ba1a1531U, 0xbac7637f3dbb304eU, 0xb9ef5ddeb8260937U, 0x3e8e257f3b8a02d7U,
  0xba9138273e727cf0U, 0xb8fe86d6ba5bf83fU, 0x3a2b3b81ba73a4fbU, 0xba2968e2be12d3b4U,
  0xbe136ce33e807697U, 0x396d2a3ab9085852U, 0xbaa0fa273e0adddfU, 0x3eed18bebd755caeU,
  0x3a6282a9387424f8U, 0xbc3a27ba38124244U, 0x38504b9ebb9a9b42U, 0x39203baa393346feU,
  0x3f01556c38ebff49U, 0x3a22a7e3ba0d8797U, 0x3b8a0ccd38d207f7U, 0x39137a103a12a650U,
  0xb818596eb9805b72U, 0x3b875fcc39572797U, 0xb98c95d83ec7d447U, 0xb944d87c3e77a266U,
  0xbd581c353764f4baU, 0xba5c9c1838c57db8U, 0x3a3cd5e2390379e9U, 0x37f59b4fb8f39226U,
  0x386365a33e611db9U, 0x3a7bf0b5ba32c151U, 0x39cb9b0fbeb8cdacU, 0x3f121f6f37b6fea7U,
  0x381ea7c73cb3372bU, 0x38afe0e4ba222de8U, 0x3d9714633a26fd67U, 0xb91164083eccd7edU,
  0x39d70df138fbbd93U, 0x390e95cf3efdb911U, 0x39ce34c83ac624a2U, 0x3b823db23b4426cfU,
  0x3d5e96963947bf8bU, 0x3a31fbb6baaec19bU, 0x3fb88d93394149dcU, 0x3b8c3dcc39f2239eU,
  0x390f1d39390db5e1U, 0x3ea961fa383e476eU, 0x3aba27e03b4470fdU, 0x390f23be3b5836c3U,
  0xb9d185c338a44d02U, 0x3b4a430f3e7ab04aU, 0xb97aafb9b98344e0U, 0x38b3834f3beb5949U,
  0xbd34915ebdf4ff40U, 0x3916db50be18a485U, 0xbe65dbe238e58097U, 0x3b7e9328bcb4572bU,
  0x397b1e4f391f380fU, 0x3f3f924db88e5747U, 0xba674fb33b56cdeeU, 0xb78e08393d358ba0U,
  0xb920d9b9398837adU, 0x3eaf8a2435766647U, 0x38e29bba3eb8ad7cU, 0xbecd0e063bfa26fdU,
  0xb7a236b2399f6de7U, 0xbbaeead1bedf826bU, 0x3847f6723a7f6ba3U, 0x3d5142d53947fac5U,
  0x3a119b46bd9e4d60U, 0x378a6802395bc70aU, 0xbaef2008395357f3U, 0x3b63e956be8fd88cU,
  0x3f3bbde5be6e595fU, 0xb9070ce1ba1b02c4U, 0xbbfe4d48be8b92e9U, 0xbe8fe189be8ac456U,
  0xb99dc418ba119d6bU, 0x3cb32ad238f992baU, 0xb9c3173dbc2d1568U, 0xb915924bb988ce07U,
  0xbf67add7b9bf93ccU, 0xba972fab3a00297aU, 0x3a0aa2c8b9386117U, 0xb995aa19398f3299U,
  0xbbaa924939719982U, 0xbb0d8e21b9c89d28U, 0xb9955362be22a59aU, 0x38e2b948be38b8aaU,
  0xbece0efbba084ef3U, 0x3b05d71539ca2eadU, 0xb9873c23395c9727U, 0xb94f15a9ba6b451aU,
  0xb9a5c6bfbf006d07U, 0xbbb83314b96eefc8U, 0x39d6b6be3ecd5ce2U, 0x3daa4793b8a29152U,
  0xba3022f33d112d2aU, 0x38302d143baabbebU, 0x3e913757ba2341e7U, 0xb96ada82becb711eU,
  0xb947ab50b8cc1138U, 0xba0b6b9dbeba71eaU, 0xb9531427bc1fba1eU, 0x3983d4693a3b0d62U,
  0x3e0ec275b886157aU, 0xbad34fa8bc5ab83dU, 0xbf5240cab82337c4U, 0x3a0abda839d812abU,
  0xb9a9b975b87636afU, 0xbdeca5423c029da0U, 0xba1bdb84b95bcdceU, 0xb9e152e2396bd9e5U,
  0x39a77b32b978272aU, 0xbb1f9c38bed25bafU, 0xb98a2cdfb90e1d8bU, 0xb94272a7be5fd801U,
  0xbba1bc34bdd3bfc8U, 0x385a05343f1923fbU, 0xbca17bbab9f07312U, 0xbc798ec5be80442dU,
  0x39a3ade0ba12f36fU, 0xbed5529139c5ab0aU, 0xb98deb2439fa0c67U, 0xb80bd7e1bcc0f264U,
  0xb9e05f8e39c16c36U, 0xbe8ddcb6397741fdU, 0xba02678bbe856a74U, 0xbf05347639816fd1U,
  0x39fcb411b9db25caU, 0xbb3a4dd03cd0cb40U, 0x3893b333ba40a2e3U, 0x3dde36a83b249f8dU,
  0xb881a4a2be2905bbU, 0xb9a4c376373a2ea7U, 0xbb3d807eb961b6dfU, 0x3a20c3d83e6610beU,
  0xbef8da2f3f345dabU, 0xb8d31515b99361ceU, 0x39fef4443df8091fU, 0x3de1eb443e34dce4U,
  0xba71dc2bb9786010U, 0xbd8b96b33915ab37U, 0xb8e8b839bb250a60U, 0x3931f443ba862157U,
  0x3dc3b160b9de70e0U, 0xba4f266bb990b572U, 0x3a1f81e0b809ef93U, 0x384c673b382acf68U,
  0x3afafbfcba72247eU, 0x3c374703378b00caU, 0xba631e9fbe0f3873U, 0x3922bf883e5e7d25U,
  0xbd31d3c0b8d00743U, 0xba944ef73a26bec5U, 0xba937d7b39566722U, 0xb8573c98b98af99dU,
  0xba3c5d643e8d9b18U, 0xbcdc1a92b7e48944U, 0xb8ec0ac23e5f7020U, 0x3ee563d9374fab5fU,
  0xba0ae26d3c610d79U, 0xb7f05bbabc4060c7U, 0xbc65fdd2b81dfd39U, 0x39043368be01cde7U,
  0xb8cd89eaba5a6a3cU, 0xba80a1d73e7cb7f3U, 0x39d982d03bbd7d51U, 0xb98252db3a3b1d22U,
  0xbe51bdac379d3bbaU, 0xb980eae7ba224f8fU, 0xbd82c385ba46ce84U, 0x3a8703aa39d4ac45U,
  0xb9c9b8abb8dff2c7U, 0x3e8035e539ff9b5aU, 0xb894c3fc3a1aa059U, 0x390538eb3a1a39f6U,
  0x390a7a25b9a9bdf2U, 0xbc14a9f23e14da13U, 0x37c1668939d8ae6eU, 0xba9a3abbbdd83821U,
  0xbbf5eda1bd4b7506U, 0xb854e5f4bf699c2eU, 0xbe1176a138b162ebU, 0x3a376d593e3bce01U,
  0xb8961735b909ba39U, 0xbd81949b3804c428U, 0xba93721a39dc77c2U, 0x38c1f1703d284a8eU,
  0x382e57f8b946579aU, 0x3ddd3508b86896b2U, 0xb7d6b1863da551b7U, 0xbf0811a63b0a9e02U,
  0x3993b0d8ba8d7be6U, 0x3ceaca14bf001361U, 0xb922c1e438bd687cU, 0x3d237f19bc5f548fU,
  0xbac6311c3e325aa1U, 0x3846e6feba601b96U, 0x3a46f7abba98e842U, 0x38ac26b1bb1af7c5U,
  0x3eebf02dbdee1a6aU, 0x38d7644739b9fc2bU, 0x3aa1b708bcf55faeU, 0xbd9d35553e8c7989U,
  0x392f2cc139c49242U, 0x3ccc8feab9fc3e88U, 0x3a050b6ebb57f9a3U, 0x39676592b90440f5U,
  0xbe1dd9bf39ae2838U, 0x3a594aaab9656e2eU, 0x3961b885398b1928U, 0x39c4c966b98dc3afU,
  0x3a8908f4395639ebU, 0xbbaa5383b99fb97cU, 0xb8e7e2f83d160bffU, 0xb91bfcb1be83ef62U,
  0xbe8e114e3a3c7b2bU, 0xba18c97b391c776bU, 0xb9c40d52397c5a94U, 0x391745763a05f000U,
  0x388aa72b3c7629d3U, 0x3bcf69a6ba2e0fcfU, 0xba0e3658be292becU, 0x3cc62b0f39b85637U,
  0xb935aeafbce4376fU, 0xb9e4b1bd3c3a325bU, 0xbd8d7aaf3a294251U, 0x391ac4ecbe1053b8U,
  0x3a144e063995729aU, 0xb980715cbd164257U, 0xb5d925643c028fa8U, 0x3ab9f1223a97081cU,
  0xbe2baa0fb98a8d10U, 0xb8e378863c30e426U, 0x3f8b602fb985d2ebU, 0x34bbc54bb994d6f9U,
  0x39a246be387d0c7bU, 0xbd0d94f23b07469eU, 0x39970183398a0a65U, 0x396f1cd7398fa335U,
  0x3985d1f23a1a4e1dU, 0x3b1b14f7bf2a585fU, 0x3a3a8f4dba2ecf08U, 0xb8096b283f5c70abU,
  0xbb44de6a3e2aad92U, 0xb889c7dd3ec755beU, 0x3e8bbcceb78144f4U, 0x3be8c421bd913ff0U,
  0xb9fefaa43a226e5eU, 0xbe6d5276b8e461ecU, 0xba316fb83a915e82U, 0x39a53782b867cf50U,
  0x3a2586e5ba13d403U, 0xba9bfed9b9bfa80dU, 0x391da2b93d781ac2U, 0xbd2abdd4b91776feU,
  0x3905531039f69b21U, 0xbb6d56adbd270c7aU, 0xb8de589a3a06a3e8U, 0x3d8ad0da3c2ef0e3U,
  0xb99152e1bd6074ffU, 0x3721c34bb7c39270U, 0xba6c87d6b95c7f22U, 0x395e13bb3ce8726aU,
  0xbeb6bb6c3d7e42e6U, 0xb8ff4cb1b90b607dU, 0x3ab1032a3e1743b0U, 0x3e88a6e33e762e23U,
  0xb98a7462b9b49dd7U, 0x3d61e17cb80ddc4cU, 0x390cafeabc32f3d5U, 0xb77bc86b39953f84U,
  0x3f36d1d839172852U, 0xb9cb1efeb894eaa3U, 0x3a13515d39cac791U, 0x398f6e12b921affbU,
  0x3af79aa8390aabbaU, 0x3c202eb438ce2a30U, 0xb93891c33c3d216bU, 0x393edefa3ed7a858U,
  0xbe92be9eb9fda055U, 0xb8ea042439271df9U, 0x395da1d538cc7a60U, 0xb8eecb70b9669ab6U,
  0x37e295a93f4a6dbfU, 0xbd2159d33a2c4bc6U, 0x3796aa8b3d2ce440U, 0x3dd3115db95186d2U,
  0x373ca3963d123ab1U, 0xb9212e34bcd8ccb2U, 0xbe902e71b7347630U, 0xb8daa6843d09f8bfU,
  0x38dc2554b985818aU, 0xb94697bc3ed1d4e3U, 0x399484193a81ac80U, 0xba03c8c33a05ca1dU,
  0x3cf6953eb7b735fbU, 0x3a1f448dba33eceeU, 0xbf42a7863913c6c6U, 0x3a36cf3ab9adfd06U,
  0xb91d055239251604U, 0x3e1b34093aa70e30U, 0x37547f0739c35ea1U, 0x382784fa3aabbdf0U,
  0x381b4107ba3e7674U, 0xbbf27bd1be286c87U, 0x381fac253a045e43U, 0xb83bee7cbf53a935U,
  0xbd13b0943d174850U, 0x398716aebe80e597U, 0xbd9bcb26b913bbccU, 0x3ae013ffbd3f9cf3U,
  0xb7c1237b3725ee16U, 0x3d9e118c390ddb07U, 0x3a1187cdba7f5736U, 0x37cb6ae33d04cac7U,
  0x38fbeffcb98613e3U, 0x3da20934b8c845f8U, 0xb8ec449e3d5a3d54U, 0xbd6030683ac2f3b6U,
  0x393a2524b9929a20U, 0x3d1efd70be456fe9U, 0x3aab1419b972208dU, 0xbed22376bcc17832U,
  0xb9feddb8bcb633ccU, 0xb863eefeb9afc9bcU, 0xbab9f07836e9b1feU, 0xbae3a398be3e2e60U,
  0x3f2ba5f9beed3d54U, 0x399a42e139e190feU, 0x3a66c35dbddc1c70U, 0xbe1d82823ebf50e0U,
  0xba26da72b83b2539U, 0x3d864fb436a110e5U, 0x3a28f7db3bebebbeU, 0x394e7719b9e7e2b7U,
  0xbe6bfdfeba5a150fU, 0xb9fb67d7388af0adU, 0xb9d79f24396a23eaU, 0x39c0d931b911df39U,
  0x3b2b21e2ba648c0eU, 0xbb0d9086b915814aU, 0xba2e7b963e2ba834U, 0x3994bdf5beffdd2aU,
  0xbf4ccb7d3983d467U, 0xb9cc6c2439f4acb1U, 0xba9ef4053a0abd1eU, 0x389945d539a55f3dU,
  0xb9d0a01d3b35d638U, 0x3bff6bb8bb0184d5U, 0xb93062063d89bdf8U, 0x3e3959eeb9bed042U,
  0x39f3f8ddbcc1b3bfU, 0xb8ddf3223c482681U, 0x3e8c03dc39114d44U, 0x3955825dbf00acf2U,
  0x3a039678ba142709U, 0xb9ff0120bd8b1252U, 0x3a27c8f43baa187cU, 0x3a8bb7053a6fd636U,
  0xbe35f71038e31636U, 0x3a2e0ca93c3345d2U, 0x3e6fbf80ba508259U, 0xb9c9c9be39bcacb2U,
  0x396945a73818dd11U, 0xbe870f70b9e7cabeU, 0x3a02b00b371f2855U, 0x39325d453a4a9e9fU,
  0x391d8cffb910b781U, 0x3b49c262be593b6cU, 0x39b92737b98034f9U, 0xba68fffa3f48e937U,
  0x3c259cd63dba585cU, 0xb766e01e3f1793e6U, 0x3ebf95c7b886b2baU, 0x3b0114a93dd0f283U,
  0xb95f808e3a832deaU, 0xbe923c12b9c30154U, 0xba8643d639b836b5U, 0x39d0edaabca334a9U,
  0x39e43332b9bbab34U, 0x3d813ddfb9128f9eU, 0x3891d278bd674168U, 0x3e42efcaba05d403U,
  0xb992063fba306ec9U, 0xbc33098e3e771c97U, 0x398db3db3a2fa161U, 0x3ea746353c103503U,
  0xba393f20bef7c1d5U, 0x39140694ba023105U, 0x3a314205ba2efb22U, 0x39bc62ab3e45905bU,
  0x37f5b516b8a2af08U, 0xb6e49e8b3735a1e8U, 0xb6a878ccb629800bU, 0xbc9e47703d3e9b0cU,
  0xb79092d037deca9cU, 0x3ce5d4b0b784a4c0U, 0x37a0b2b8b9628f87U, 0xb70abf91b6ce8dbbU,
  0xba471bb3b6bef47dU, 0x8c0b4ef5b79b9d43U, 0xb883ff71b76412d9U, 0xb7d23930b7feda06U,
  0x36fc4df3b6f3ba4dU, 0xb7325544b838a5fdU, 0xb73c7d05376e2d22U, 0xb6a66d7c3a9ccfdbU,
  0xba3877bdb7c79a9fU, 0x37a22a4cb7a3feecU, 0xb7a1f4e6b7c29521U, 0xb72a3973b7c16f1fU,
  0xb7608ea8bad361b6U, 0xba2ec774b80bb433U, 0x369694d5381147a4U, 0xbd8da67aa8b4f88fU,
  0xb8451146b288d6e0U, 0xb7ab9bec3940e2e3U, 0x3172fe783741a312U, 0xb612034eb96b8effU,
  0x37e09923b5e33b1dU, 0xb73dc98fbd0128c1U, 0xb715467db81199b8U, 0xb944f836b80f6cf4U,
  0x8cc4ae7cb720b56cU, 0xb822c4f1b7ea196bU, 0xbcc4f924b7723b4bU, 0x38ba4a06b6fdb5f7U,
  0x3897899736a5c812U, 0xb6078eb2aa12d3e5U, 0x38ad6c00b910eefaU, 0xb6f47f0f3861d9e7U,
  0xb5b787bb382595e6U, 0xb8219713b9988f8bU, 0xb71082c7b707c7e8U, 0xb6de4658bb79dc5eU,
  0x32300d4b38d0241dU, 0x363eb46d38e3a406U, 0x3708f875b82e20a6U, 0x38745470ba1adb6fU,
  0x3714b02537ddf39eU, 0xb90aba1fb78993e2U, 0xb72405abb787da7cU, 0x37c4910db1dabe40U,
  0x372fa2b5b69bf15aU, 0xba13025536e81550U, 0xb69c3f2eb8592c93U, 0x3986ee3fb9146ab3U,
  0xb7f9715ab7ec940aU, 0x39ddc9b0388525d8U, 0xb89a8d5a384f610dU, 0xa99bd7a53863e797U,
  0xb711bf24b7b7ab6dU, 0xb6b634c1b6b42a50U, 0xb8942e63b716d94aU, 0x380c433d3792468fU,
  0xbd00f1a13d914282U, 0x399635fdb8434b85U, 0x3b11da043e90de87U, 0x3dc4c4ed3dd503a7U,
  0x3612582939b0dc99U, 0x3d82ea3cb832f5f7U, 0xb946f6ad37a125a1U, 0x3893b1c23854fe76U,
  0x3f217888b86ed439U, 0x3a96b5a339245e59U, 0xba627f3e390a6439U, 0x385dac5bb996ffebU,
  0x3b36e94d384e6e22U, 0xbbb89414b85c0bdfU, 0xb88934fdbebb6c16U, 0x39f060b03eacaafaU,
  0xbe4d9ce83847d4bcU, 0xba4c8f5eba0dbcf1U, 0x3994dde939029584U, 0x39195c33395798c3U,
  0x38bc8c2c3e068b47U, 0x3cbb032eba7674ffU, 0xb7a83bb2bf5c02afU, 0x3f3519ac38e82ef3U,
  0x37d635643bc61710U, 0xb94f05153c831ba1U, 0xbe72d7b637fd791eU, 0x3740892e3ebcfd7bU,
  0x393f3fe4394e3658U, 0x382d57ed3ea228b8U, 0x3940d8de3be2b34aU, 0xba8eafd1babdc536U,
  0xbd79a05938675d75U, 0xb9e7112b3b4e2ee1U, 0x3f4e95d2b9252447U, 0xbabdb64839bad755U,
  0xb9c5e0a939d0cc26U, 0x3e7825ee390fd899U, 0x38614d1bbac32418U, 0x38d13f14baa67e07U,
  0x3943f156b8e8aa3fU, 0xb83a83513e76b2e4U, 0xb894ccaeba605e89U, 0xb9973c5c3f4cd7b7U,
  0xbce3fd6abee7ef66U, 0x38ce72293e081d89U, 0x3d77764eb6caf142U, 0x3bb0e8963d978694U,
  0x371c2a7d39bf9e0cU, 0x3eb4c3c7b62930ffU, 0xb915719837db592aU, 0xb842c4593ad9927aU,
  0xb899fe80b990ea68U, 0x3e563ff3b967eeccU, 0x37e66bd33ebca380U, 0xbc2e5e20bb761ee5U,
  0xb9a5276a39b26fceU, 0xbcbe49fbbd4e38f9U, 0xb742e1b139102024U, 0x3d3dfc993ca0684bU,
  0xb9747bdd3ec2a518U, 0x38f136bfb91d4967U, 0x3ae8d6c439577a0bU, 0x37ecd2e9beab125aU,
  0xbec1957e3e7822e6U, 0x39049a9f38f4c0cdU, 0xba5b0f283d7ca0d7U, 0x3ea6c5d53ed3ea50U,
  0xba41a3e7b9e680bcU, 0x3c30cc83b88e2779U, 0xb744ffe0bb6c741eU, 0xb8f07e5dba1dc0f6U,
  0xbf01b817b870ac5aU, 0xb84951c4ba29994bU, 0x3b6e14d138219797U, 0x38894740b8b710bcU,
  0xba9d4262ba50d14cU, 0xbb9a553437d55958U, 0x3981324fbd1c3235U, 0xb8b09f08bee0d5a3U,
  0x3d0d0fa839089d6fU, 0xbb2f74bebad1eff5U, 0xb99d45ecbaabbed9U, 0xb81426d7b7981347U,
  0xb904536ebf4bc9d8U, 0x3c100dcabb6239aeU, 0x38630c8e3eed5853U, 0x3eb93422360e5098U,
  0xb7ccd2b83d24822eU, 0x38bcd2153b4eb349U, 0x3ea5d2473a2659a2U, 0x384e1587bcbd90e4U,
  0x393fdc53b90a94bcU, 0xba01a836be874108U, 0xb902c941baaa9eacU, 0x3b142d5b3b1b5723U,
  0x3d2f2a5cb8d00d82U, 0x39d876f8baa99b2cU, 0x3f907a43389e80b1U, 0x3c02ec31babc03c6U,
  0xb73be4653891fe80U, 0xbe0d3416bbaa4d48U, 0x3a9b33573bc97009U, 0xb80ba32f3b338c56U,
  0xba7ece2fb7b9d7eaU, 0x3af13101bc6c0bb7U, 0xb91fc1ebbac40212U, 0xb98e8176bcf1ea82U,
  0xbd582204beadd331U, 0xb768c8e53f2ca433U, 0x3d5bdfe339649cb5U, 0xb7b24af3bd6f9614U,
  0x39dca5ab38d13025U, 0xbf140efbba8222f8U, 0xbb2465613b06bd6cU, 0xb7a51d82bd3799aaU,
  0x394a4071b8bb6294U, 0x3d7e8892b7f153e7U, 0x3887bda13dcfa890U, 0xbef0661f3bce9e25U,
  0xba8f7470b912f441U, 0xbbe894123dfc341eU, 0xbb8f91893a5c2e3bU, 0x3dcb57443bc940d0U,
  0xb96b6930bdd1f3deU, 0x3857f4c3388ee146U, 0x3a6f8613b984c914U, 0x3a9b496bbde7359cU,
  0xbe968341bec89499U, 0xba603ae4b9df3ee4U, 0xbaaafda23d9b7cdcU, 0x3d05d51f3da03134U,
  0xba50b4b6b981977dU, 0xbdb7edcdba517195U, 0xb926bf90ba98a83cU, 0xba11b547ba91e1d6U,
  0x3ef9ab90ba83ec0bU, 0xba18e0dfb8c9eb9fU, 0xb9e0cfd8ba258c87U, 0xb9ea1316bad7af4fU,
  0xba0e5bf0ba6f1f6bU, 0xba458fc2b8e7c0baU, 0xba2ccb24be07ce04U, 0xba8d852d3ef670e6U,
  0x3f172f14ba05b0aaU, 0xba0db3b8b8d20d17U, 0xba67bb0eb83d8134U, 0xb84020dcba8d1d89U,
  0xba93558c3e35853eU, 0x3b9bf70e3a8439adU, 0xba61c6bbbe71010cU, 0x3e0aca1bb9ae5ddcU,
  0xb734bcba3daa41ecU, 0xba4ec6db3b66d22eU, 0xbe52829f3955341cU, 0xb88b20ba3e878db9U,
  0xb979f0c9ba896967U, 0xba784852bd09192dU, 0xba28f379bb4a98f2U, 0xba0f8b5c37d2cd5dU,
  0xbde467d9ba81c7efU, 0xbac27241b9ce622cU, 0x3f2b16f6ba91168eU, 0xb9efbbe5396bf5c0U,
  0xb747a43aba966254U, 0x3f180119bba00971U, 0x37b92b5e38c363cfU, 0xb7bcca92381b3668U,
  0xba13daa6b951be8eU, 0xb91205223e6af217U, 0xb9b5831aba41c694U, 0xba644f65bdaadb40U,
  0x3b994a53bea462a7U, 0xba8582acbf001298U, 0xbd0ff4bcb950413bU, 0xbb0da5033cb62f4eU,
  0xba1946ba389ac79eU, 0xbdc9a0ccb984bcb7U, 0xb930df92ba295767U, 0x391e71ec3d265083U,
  0xb923a228ba453d46U, 0xbd830ad2b9d683c0U, 0xb904d9febe5bfb61U, 0xbf0a500738dda3c8U,
  0xb772da15ba7f2151U, 0xbaff52ccbec879ffU, 0xba4ac854ba37704cU, 0x3e39ab113b21ba00U,
  0xba8e4586bdbba293U, 0x37b800b9ba2fb744U, 0x3a67a886ba7e60b1U, 0xb8244a7ebe9f0601U,
  0xbe3bf3dc3f533605U, 0xba6e2ae1b93795afU, 0x3b21891a3f55fbf0U, 0x3e8963973ba2c9afU,
  0xb98aa2a538b7697fU, 0xbd932b7cba8a1ed1U, 0xb684aa303b001336U, 0xba54dec138dd4cfdU,
  0x3f3e9ce335049c71U, 0xbaa254b6b9a11875U, 0x39e295d9ba76c5baU, 0xb9b1af3fbb24314cU,
  0xb9524ec5b82b18a6U, 0xbc80a015b98b8edbU, 0x396be826bf057c7aU, 0xbae02b4a3e519fd0U,
  0x3f623c5f3996ae6dU, 0xbb7f1f8ab93315d8U, 0xb808122739ce31aaU, 0x3872e70e395d1338U,
  0xb75ebcecbe1bea35U, 0x3a4f2ac0b85a50ddU, 0xbae2fec1bcdd48e2U, 0x3eacaa0239730bddU,
  0xb99f02a63d4fae4eU, 0xbabd51253b0048e9U, 0xbf8536f9b993553bU, 0x388f755e3e023793U,
  0xb99d513d38d77e21U, 0xb89f540f3f09b778U, 0xba8ff256bb3cf533U, 0x38a38459b96a870eU,
  0x3dd4b068baa214b2U, 0xba178309ba921441U, 0xbd6ead2b394ff7f0U, 0xb8848406b93cd758U,
  0xb8b80f62bab8d8b3U, 0x3e8b37163bc27d56U, 0x380cb36bb8c3e1dcU, 0x37f3f9bc38b99eecU,
  0xb9de0013392e5eebU, 0x39117abcbdfe298aU, 0xb91f667f39720699U, 0xb999cb943e2f9944U,
  0xbcac7c62bf105e9aU, 0xba8e6aa6bebd8fefU, 0xbed75781ba111db0U, 0xba131eae3e4a9b79U,
  0xba89136bb99f0c5cU, 0x3f498f90ba31d6c1U, 0xb804de3cb8f60627U, 0xb88feb853d8b9d2fU,
  0x37e79041baa6b150U, 0x3f48dde6ba3b725aU, 0x363306f93e075a73U, 0xbea3c7dab9376e75U,
  0xb9485e11389f2c2aU, 0xba25e6fe3c06f3d8U, 0xbb0f6cad390208efU, 0x3e1da94c3b2e5a74U,
  0x394cfe8abf044061U, 0xb929fcae38afdc4fU, 0x3ac6f0da38900f24U, 0x3933dd26be8aeba1U,
  0x3f6fc3fcbe72c82aU, 0x39a1723c38ebae4fU, 0x39f0dc563d6b204eU, 0xbe440cee3eaca09dU,
  0xba1a0d85b928ee42U, 0x3d75d3c4392e3d9dU, 0x38c26bb6bb0a2040U, 0x39f00ea3ba0b201dU,
  0xbf022b13ba4e2d40U, 0x3acd4c563889d5b8U, 0x39b1f81039852466U, 0x38a40be33a0a0fe3U,
  0xb9221a65b9f396f0U, 0x3b82f3f239de3b9aU, 0xba65e2373c30a5fdU, 0x39db8a8cbee03a1aU,
  0xbf7d0b0f39eca8f1U, 0xb90ae990b9ae5b10U, 0xba809ec0b9060699U, 0x3960157439999287U,
  0xb9e93b1cbd3e0b8bU, 0x3bf767eaba8a1637U, 0x39d30172bea5ec51U, 0x3e9b7b6d395ecad7U,
  0x3a62adeebafea428U, 0x39910ebf3b684308U, 0x3d027358b84da354U, 0x391908c0be11da60U,
  0x3942fbffb9edf860U, 0xb9c8e2dfbec59d72U, 0x39bbadcd3b361a41U, 0x3a1fc37c3a1737afU,
  0xbedc2c7e39866122U, 0x3a0cd4183a4f3c2fU, 0xbf107921ba6485d7U, 0x3a22c4ddb9eb7c65U,
  0xb971a470398f49ebU, 0xbe8fe6033ba457eaU, 0x3a13c77eb8e706a2U, 0x38a8c07d396f4e60U,
  0x3913698eba07c6d9U, 0x3b4eafb2bf5092d0U, 0x399a42143a7a031cU, 0xba5a7b963ccbefafU,
  0xbd08e8513ed21c35U, 0x38c7f5e03eb964c1U, 0x3f3eab4c3a2e4ae3U, 0xbbbf651fbe44b637U,
  0x39a8f562399fe7b9U, 0xbf26421438b4bfa6U, 0xbac345deb91ed39eU, 0x3951898fbbe5def2U,
  0x39d46f9b3934d8e3U, 0xbea37a8c391c0731U, 0xb835134c3e803dd5U, 0xbc44ccf239c33268U,
  0x389d503cb9edfb1eU, 0xbc14c155be2f484dU, 0x3aa1e04b3a9789b5U, 0x3ebf89b23c69ecc0U,
  0xba2fa192bd8a839cU, 0x3879f7a7ba23056bU, 0xb90fdd48ba48def4U, 0xb96ef194be1b7bfaU,
  0x3e5f53953e58fd23U, 0xb8c3cc3ab976dfbfU, 0xbb1f0c073efbcf92U, 0x3e29793dbd196b9aU,
  0xba014a4bba52db60U, 0xbd0bf21b399adfe3U, 0xb94d6f84bb18ad17U, 0xb72063a9b9e52dceU,
  0xbe5829bb37703b20U, 0x3a537555ba8597fdU, 0x3a0db16cb96ac6fbU, 0xb996c15b3a21561bU,
  0xba6cb9c7b8413fefU, 0xbba98e68bae02e03U, 0xb80267b2bf1c7cdeU, 0xb943af463f2dab58U,
  0xbeab7f0aba585e1aU, 0xbae5b5b3ba80a12cU, 0xb9ed20cdba767656U, 0xba1b9684b99886f5U,
  0xb82e71a73eaac770U, 0xb99c68853a365837U, 0xb8602e69bf0b4349U, 0x3fae4144b951610eU,
  0xbb31e72c3d65ab9bU, 0x3938a76bbadf68cdU, 0xbe4aff8eb9fb5045U, 0xb9790dcbbe767abcU,
  0xb8cdb682ba04cdaaU, 0xb9dfee8fbdfa268aU, 0xb93282ea3a42017cU, 0x399b8b5ab9e7a5d7U,
  0x3ed6ac1c3923249fU, 0xba2ee95ebb7de982U, 0xbf246577ba492172U, 0xb9bf7a4fba65e70aU,
  0xb9bf24fa38e4d38fU, 0x3de4ea0b3c51fb22U, 0x3921ed4ab98b458bU, 0xba56e5d33a6fcc43U,
  0xba84cf47b9219c23U, 0x3a2e8ca33e7e53e3U, 0x3814c956ba6f258aU, 0xb98f8ecebe7e3c85U,
  0xbd33cebdbe15c4e7U, 0x37d8f0b53db6341aU, 0x3d2da5f3bb130b63U, 0xbc0a8763bd2e1b24U,
  0x39d297dbba7259c3U, 0x3f0e155db9fda22dU, 0xbab050a3ba18b847U, 0xb91900bf3cc82859U,
  0xb9875ec539b1ee27U, 0xbe67673d39d808ecU, 0xb98feae83d552e74U, 0xbe913a94ba322bc5U,
  0xb95fd000b8d00d9eU, 0x3b0f0b12beb81078U, 0xbada8317b937d3c0U, 0xbe95f40ebabd6841U,
  0xba4a5f633e9b0d66U, 0xba073d99b9764741U, 0xbad19fefba2efa4eU, 0x39917f64bf1dfaa7U,
  0xbee63cd83da6084cU, 0xb8a66c5aba16cfacU, 0x3abdf5c73e0c165fU, 0xbc51ef23be2ec3d1U,
  0x3900fd8a39853429U, 0xbdb192073783fd02U, 0xb98f8e963a1d6297U, 0xb819531f39ce3ffaU,
  0x3f369401ba4e482eU, 0xb9169f13b8c35c7eU, 0xb829662bb879d41dU, 0xb6645aa83a21d3e1U,
  0x39fed985b8f7f3f1U, 0xbc2ea852b980923eU, 0xb9bfb7f2bd6428dfU, 0xb6f150babe400d7bU,
  0x3e4e63c5380f1c6fU, 0xba38f077b99c8536U, 0xb988e36b39683417U, 0xb7c6b894b8ce6fbbU,
  0xb90f58ec3eaa090eU, 0xbd46d37f395a9383U, 0x39c300ffbe4cf9f3U, 0x3eb01554b8c36752U,
  0xba4d723db7f16c46U, 0x398979f5bcf3fd69U, 0x3db21c463956c510U, 0xb93fbde23da24c1cU,
  0xb8a7a62e3925256eU, 0xb9b5c24b3e2438bcU, 0x3850bb10ba6caa63U, 0xba84110c39cc9770U,
  0x3e2383a839aee935U, 0x38d6edacba84c90fU, 0xbe9ccc40b90de20dU, 0xb89925edb8645c05U,
  0x384c0aaab8a4095fU, 0x3b22d97d39f2372cU, 0xb9919de9b9b254d8U, 0xb80cc1dab8d6457dU,
  0xb9b2ab20390f422bU, 0xbb00145f3f0947f4U, 0xb949587237561d31U, 0x38921111becaa449U,
  0xbc99de043dbc4c19U, 0xb80be69bbf4555c1U, 0xbda22120b98df201U, 0xbb24ff063e73e2caU,
  0x38445bc338e5fc6dU, 0x3ec7b11838b6a3b4U, 0xb82c8096ba0b62d3U, 0xb88a73573b47a355U,
  0xba0c056438cb2b94U, 0x3e94973f3982b094U, 0xb878deb03d99c1c9U, 0xbebc71813af9da44U,
  0xb6b1b99a3941838bU, 0x3d23b021bf0ca836U, 0xb91c73a1ba4841bdU, 0xbdce81e0bcd62731U,
  0x3a0a726b3e557c55U, 0xb8b9a96c39bb0382U, 0xbb16e22b39099b81U, 0xb98bb27ebe3ab73bU,
  0xbebe988f3e55ff49U, 0xb8cacb56342c01d7U, 0x3a6ab1abbdc01532U, 0xbe669abc3d2d60e8U,
  0xbafe3ca3b95ce7d0U, 0xbd45b4f8382ec87fU, 0xb91ee7723a65d42eU, 0x3854cd38bafec75aU,
  0x3c0dcc8aba9ee36bU, 0x39c32f98b9399a60U, 0xb9d3bf8b39ac6eb5U, 0x389ce39338a8b698U,
  0x3ab24cd2baee2091U, 0xbbb24a1db9028166U, 0xbae6577dbe6e9a93U, 0xb955e6633cbd596eU,
  0x3e9affe2b9226f83U, 0x3a4abb70b81499a7U, 0xbaebeb7eb9f103f5U, 0x38769ff6b8a7c03cU,
  0xbae962a03dc8b36bU, 0xbb768c0fb91cb5dcU, 0xb900c4febe91a7efU, 0x3ee60e183834f48fU,
  0x393f644e3d4c1b2dU, 0x39458971bab85aa2U, 0x3f092393ba123533U, 0x38aaf0ab3e44329fU,
  0xb899bda1bacddc72U, 0xbab2271cbc945bc4U, 0xb8ea4b2a3ae8d9eaU, 0xba7ae36aba2078e9U,
  0xbdadec7e39087ab2U, 0x3873afff3b90630eU, 0x3d7675e0bad654a2U, 0xb99a0f87b9a58eabU,
  0xb9482aa135c43f66U, 0x3e8006b2bb2b9a27U, 0x39012e42b928454fU, 0x38fd4524b96868dbU,
  0xb7d1dfcbba5ce028U, 0xbbd0d47fbdb3258bU, 0xb95b2ef03a1671b1U, 0xbacd1f603d00d0c1U,
  0xbd92eb21be808923U, 0x3807cbdabf1ed636U, 0xbed96998398edbc9U, 0x3c1dce6a3e0b3e9cU,
  0xb8e83a43b8f9fb01U, 0x3e4b69deb8b2671aU, 0x39f48fe93a0e1f4dU, 0xb895f9d03d0efa25U,
  0x37075041390b64fcU, 0x3dec49b9b8fe1e2cU, 0x38ba1d4a3e576b83U, 0xbf073d57ba33f813U,
  0x389a1435bad6375fU, 0x3ae60156be8e733fU, 0x3a8ffcbdb8f2e790U, 0x3e78c6ac39b20743U,
  0xbaf23ead3f1066a9U, 0xb7a8ebabbacd027cU, 0x39fdedecbaf77d3dU, 0xb876cda7bf1b9989U,
  0xbecb31ae3e806d1fU, 0x380074efb926d2c0U, 0x3b1bd5243e446a3cU, 0x3eb81d243e52511eU,
  0x379796c3b9d61300U, 0xbde5d444b96518a3U, 0x38cbce33bb6bb930U, 0xb9543dea381092a2U,
  0x3efe24acb8cdf718U, 0x3b53d951b9b49a26U, 0x3b108fd839164cd0U, 0x38d4bf893943f9ebU,
  0x3b31535fba31c23fU, 0x3c5710a83437b50fU, 0x37d9b917bd8e984dU, 0xb7ddae0b3e65cabbU,
  0xbe4ded77391fba74U, 0xb8ad5212b9b98dbbU, 0xba6d2c18b9f5915bU, 0x374b0faeb9facfc7U,
  0xb961704e3f0f2362U, 0x3be3c71dbb793929U, 0xb89447e73f130785U, 0x3ea2d144b812fe4cU,
  0x3a0b3c47bb380ed8U, 0xb9a86d913b27a9a0U, 0x3c1ac08239180718U, 0x38e44ce03dfa875aU,
  0xb917c7a4b85212a8U, 0x39958d273e893397U, 0x3881d5a83be3d552U, 0x3ba270ee3b44b777U,
  0xbdee0b83b95c3dceU, 0x3a512d983c067198U, 0x3f95af82b98af6b5U, 0x3c0e720db9cfdfedU,
  0x36b714da383040d7U, 0xbe03cae73b33ff33U, 0x39a5a4343bbdd4deU, 0x390debe53b22fb97U,
  0x3979939d37c89093U, 0xbb677bc93d23609dU, 0xb98519aaba80e7d0U, 0x397126543e5ab3adU,
  0xbd91e4a03e37731eU, 0x38a54706be997867U, 0xbded5050b8c0f384U, 0x3bbcb0cabd3d2300U,
  0x397ec0a9ba2a9e9dU, 0xbe99417fb95d8f7dU, 0xbb15a7e63af72179U, 0x3804d6c33c0db104U,
  0x37d0004cb98838c3U, 0x3e879a92b8a61899U, 0x37b9465e3e5aaebdU, 0xbde27a793bb6572bU,
  0x37a0aa8db955b11bU, 0xbb9a4742beab9a95U, 0xbaa95d063ae63461U, 0xba89ab54bb8fea9cU,
  0xba290da1bcbfb62eU, 0xb6f35bb0b9c96fcdU, 0xbb2a5d04ba274599U, 0x3b9011eebeb598b0U,
  0x3dbb3668bcc2e16cU, 0xb85277f939a2930bU, 0xba03cbeebd6f4336U, 0xbdfa48333caace00U,
  0x391186723900b4ccU, 0x3cc7d9b2b8e8a02dU, 0xb8321da93ab78ea9U, 0xb832055438df19c5U,
  0x3e5b90c93a0a8c59U, 0x3911afd039650e99U, 0xba7ca058b80f94abU, 0x38b9db7139b7c864U,
  0x3a8a05ff3a10b723U, 0x39376e6a379404b4U, 0xb8fbaaddbe429186U, 0xb91717053bbde17fU,
  0xbdbcf68d39b12a59U, 0x3a5bf022b9a43f59U, 0x39718bff35d0668dU, 0xb8c52f7539bba54dU,
  0x39743cf8bdef6018U, 0x3b44f2913b192a56U, 0x38a48659bebed76fU, 0x3e15e16436c2ae81U,
  0x3947eaf4bc6973f7U, 0x387639383c5b86b2U, 0x3d1cc31238cb6f79U, 0xb85b6f23bd893944U,
  0x38aaae93390b4ac4U, 0x39972c03bd5ec182U, 0x391afad53ace9054U, 0xbab1adcdba87770bU,
  0xbdf2ac163899fee7U, 0x3944ebd5babc6d92U, 0x3f9e632e39b09692U, 0xba86f3ea39644985U,
  0x39842ba938a1a31cU, 0xbe40f4303b5b62a5U, 0xb98bcfbbbae1631bU, 0xb84d11e1bb028af0U,
  0x39f914ef39c8732fU, 0x3af736a2be0f8e5eU, 0xb984e7d8b98a1276U, 0x39bea070bd89726fU,
  0xbc88da803e094329U, 0xb8ac707d3df7a2b0U, 0x3e13e60739a65ea0U, 0xbb9371dbbe11413bU,
  0x39012f8739841957U, 0xbe5b39bdb9a303a5U, 0x3a91044ebace868fU, 0x386e51f6bca34782U,
  0xb8d8d37a391c0b5aU, 0xbd28c2f8383850a9U, 0xb93101573d5cb959U, 0x3e255ba6bb3a38ddU,
  0xb995d12b399b0f22U, 0xbc2f0df9bcd6395bU, 0x39151cc7ba28d06dU, 0xbdcfb3573c1b414bU,
  0x3a5a8d3a3db3be66U, 0xb9042f52380f18a9U, 0xb75ad23639b18392U, 0xbaa636e53d8f0613U,
  0x3f3aa4e2bf2c23aeU, 0x3a25e776b99a6007U, 0x3ae43e45bd24638bU, 0x3ef8bdfa3e8cd566U,
  0xbaeea863ba5a9de5U, 0xbd0ed8f439a3fba6U, 0x36b07a243a390252U, 0x39b38bf8bac1f232U,
  0xbd092248ba009055U, 0x39c11514b8f36358U, 0x3a4b6771394d438bU, 0xb63f9b7c3a8d5beaU,
  0x39499a3ebab86becU, 0xbbf11d5ab90dd802U, 0xbabf5ef7be8c4ddcU, 0x3a10de03bee11559U,
  0xbef3961db83237dcU, 0xba8c080d38a6594eU, 0xbabbe32cba11cfdeU, 0xb8bfc648b998fcacU,
  0xbac4a344bedd9b6aU, 0x3b1bf37dbaba9a22U, 0x392a1b4b3e0d5979U, 0xbef6fa22b82af1deU,
  0xb91ffde7bc862521U, 0x3a13b11a3b97ed5cU, 0x3e6d7cd538fbd5dfU, 0xb80d1fd8be9ddc1eU,
  0x37880ba8ba9f7c0dU, 0xba1b00c9bd9192e6U, 0x3a145a173aa067a5U, 0xb96f048f39b0a393U,
  0xbd31cdb639e5d92dU, 0xb771b1b8399d57aaU, 0x3f14decebac23e27U, 0xb98b1b8039dc4cd9U,
  0xb992d46a39ee239dU, 0xbeb2b03c3b66e3caU, 0xb989544f38f9c689U, 0x38795e44b8ff4550U,
  0xb86fbf6db98b7e67U, 0x3914a822bf3c8d6aU, 0xb8d42004399d244cU, 0xbad653ea3ec65775U,
  0x3d868b513f085b65U, 0x39b28809be828d56U, 0x3e44d9ec389a89f8U, 0x3bc9cbe8bdf9ec41U,
  0x39e09cfc38ea38d8U, 0xbdc55b7d38b093f3U, 0xba1b181fb9039adbU, 0xb8336ff2bd74ab6fU,
  0xb9beefd139d77894U, 0xbebef66d38dfdeceU, 0xb8fb26243ccd3980U, 0xbed56218ba2a073fU,
  0xb9842f62ba8d6c74U, 0xba273fcfbe560adaU, 0x3a4d5469b94dc81aU, 0x3ee069e43bd02808U,
  0xbaddc7df3dbe50f4U, 0xb9271c57babcfcd2U, 0x3b4e37b3baa7119eU, 0xb94ea1273d3a7c58U,
  0x3e8c42debacefce5U, 0xb9116910b929ae91U, 0xbac75b1dbd6f3da4U, 0xbcbbd80ebe86dba9U,
  0xb99e134db9ea1186U, 0x3d3acf953a038dacU, 0xb9bbdf143b813eb0U, 0xb911a8a7390d098dU,
  0xbe9f9bacb9764703U, 0xba07c44738f06c0fU, 0x3a3f2110b8e5c927U, 0xba0aabfc39c618aaU,
  0x3a13edceb8577070U, 0xb9f8e22ab93f4a47U, 0xb8fd87bdbdf7a169U, 0xb72ebb62bd15112dU,
  0xbedb8cf7b8bec858U, 0x3ab199dc39d2e741U, 0x37e58af8b9d15fe6U, 0xb99046b4ba4eb119U,
  0x3922d2ac3bd7f0f6U, 0x3c07121e396ca4d7U, 0x39a5be57be8f6637U, 0x3e23594fb8b2293dU,
  0xba8ab718bc0b5058U, 0x39a7a2de3c7048dbU, 0xbe7d4928ba6c318cU, 0xb99fd8263d9f9240U,
  0xb96d33a5b9ba114cU, 0xb90a6268becd2ddcU, 0xb99e49093b565d05U, 0xb90572453a52a983U,
  0x3e007cc23a07e43dU, 0xba8f476d3b04a432U, 0x3f43c199b73c9e51U, 0xba7aeacbb986742cU,
  0xb92a9219b6e55454U, 0xbdf44ba03ab95d69U, 0x36b3b4b53745fc47U, 0xb9c3e7d3b81ce9ecU,
  0x395b206ab96febc6U, 0x3aec05fbbe1f85d5U, 0xb9ce9fa7badac18aU, 0x390ed1f13e1316b6U,
  0x3cca92fb3e170cceU, 0x38834c193e29c5d1U, 0x3e013903b9cbd504U, 0x3ba1e65cbe0281f1U,
  0x39aa1759b99259eaU, 0xbe0efb4338973c0dU, 0x399d387fb9078dddU, 0xb918617dbc6d2375U,
  0xba05312b39bcf48fU, 0xbe1696163a0ad819U, 0xb9a229b4bd992688U, 0xbf00d224ba41d916U,
  0xb9433f13395b3424U, 0xbc5abc663e0c0d9aU, 0xba4ca459ba6d5eeeU, 0xbe1e54183bae4001U,
  0xb7859abc3d8ac9ffU, 0xb99d4b6038d5ab0bU, 0x3b27161cb7b4fa21U, 0xbae56bb6bde151e2U,
  0xbf3abbd13f21e8b4U, 0xb9279292b994a01bU, 0x3afaa73f3d96aa37U, 0x3e85ac42bd41f16bU,
  0xba98f735ba4413fdU, 0xbdf411d2b96efaa8U, 0x39122a90baa7b476U, 0x398c0fe4bab66bc9U,
  0x3ec3aa32ba423f5fU, 0x3af727c8388f386aU, 0xbaadb83a39264322U, 0xb91c7c00b9253d77U,
  0xb915adddbab8548cU, 0xbc279f8438aa3c2eU, 0xba3fefadbede5862U, 0xb8f697273da73402U,
  0x3f6c79d7b98c7337U, 0x3a744e983a0865f6U, 0xbaafeaeab8bd8a88U, 0x384f15a2b8023f07U,
  0xba86376d3f2d64a9U, 0xbaedf73db9d46916U, 0xb9c68240bef6d916U, 0x3f75044b37a4e80cU,
  0xb9950e233d2a1b49U, 0xb9d79e0fbb9b4ec9U, 0xbd1bd589ba90889cU, 0x387af2c03f103d8fU,
  0xb76c29bbba939a20U, 0xba6a5d203f00b8f1U, 0xb92d9bc33bea67f4U, 0x3a6f43de3a07fd5aU,
  0xbd5fb7c3b98d7ef5U, 0xb941b89a3a7cf4fdU, 0x3eceebd6ba81763eU, 0xba85155d3a132dd6U,
  0xba405019b842a8dfU, 0x3e4bcff5bab5083eU, 0xb9e4a40cb88a95e8U, 0x38027567b9be1537U,
  0x39ae1147ba3f55dbU, 0xbbf367ae3f2660d5U, 0xb8e92e463a580da6U, 0xbacd2acc3df3df7aU,
  0xbe0a8401bec444edU, 0x38e5042abf6559b6U, 0xbf29623939315b39U, 0x3b8e7fe23e129b5dU,
  0xba03a1e6b95691a7U, 0x3f3435b43a153b41U, 0xba306f88b9aa7c96U, 0x390c8d9d3d7898a1U,
  0x39202e32b8d73a00U, 0x3e56e50bb98e3238U, 0x38f6694e3ec707a2U, 0xbf31342cbac4ca97U,
  0x39e9c514baa2fe2fU, 0x3984cd38bf19ae80U, 0x3a85bcd8ba36db00U, 0xbea227b4bbed2561U,
  0xbacc8dba3f180fa4U, 0x396ef7e7ba9ec738U, 0x3746609bbac16147U, 0x3ad2c5e6befe2c10U,
  0xbef471953e0745c3U, 0xb882e1e4b8ec17c7U, 0xbaa71e793de1b517U, 0xbe3381f3be380253U,
  0xba8cbe25b9f75011U, 0xbce7b86135da069dU, 0xb90e14823b044ac5U, 0x3903df6fba4171f9U,
  0xbea860bbba2e56beU, 0x3a7f2bf5baa7658aU, 0x3a0656d1b695ead8U, 0x39161cc1b90e593cU,
  0x38f57ed5baaea30aU, 0x3b4213043a379b50U, 0xb9b702bbbe8689b5U, 0x39c9ce0bbe64db25U,
  0x3e1396483a066c41U, 0xbb0c5ac0baae67eeU, 0xba9bdeffbacdf6d8U, 0x35c1fde7b9c9083fU,
  0xba8484473e5c5b90U, 0x393e01a9ba93be3aU, 0xb92653d3bd1ca97eU, 0x3f846280382845a2U,
  0x3a2eddae3b9bcb5eU, 0x369c1d4abaa662c3U, 0x3e6e2105ba27db3eU, 0x38d4e7bd3ec47da8U,
  0x38f2ba1bba3c9a26U, 0xba1ad32a3df6b1adU, 0xb91fbe6abb9007aaU, 0xb9e87b65ba123dc5U,
  0xbe2390eeb9397b71U, 0xb9d3ec7b3a2b8e08U, 0x3ec9a801ba56b9c5U, 0x3a618f4cbaf3fd99U,
  0xba168babb9280a7aU, 0x3de922d5bb0eb1d2U, 0xb94ee6a53a2685abU, 0x390977b53aa4935dU,
  0xbaceb46fba3fce9fU, 0xbb0cee4b3e130759U, 0xb9f1302bbaf5fe29U, 0xba489720bd9a8f5cU,
  0xbc00e68fbe6bb64cU, 0xb8c8e0a2bd79b609U, 0x3da685013a64d5d2U, 0x3a307158bd034fd6U,
  0xb99fd35eba1834f2U, 0x3ddccde5ba901149U, 0xbaa283bdba118e17U, 0xb90dd8943cf2132fU,
  0x384fd6b9b793b791U, 0xbec7db0fb98b4e20U, 0x393767d53df112d0U, 0x3e14b1363a9d1975U,
  0xbaa940ecba627ee1U, 0x3a8f6df5be842b74U, 0xbb4e7ee739538da5U, 0xbe2c1c9abb2cfd8fU,
  0xbab4cc61bdd97637U, 0x38ee651dba91a1e4U, 0x374d128bba2888aeU, 0x3a16f2213dc04717U,
  0x3faec87dc084527cU, 0x4043f500c07fc0f4U, 0x40661691c098a0f6U, 0xc0021410c028e665U,
  0x40d6270fc02cbb9cU, 0x40a15e6e3fb97336U, 0xc0823f8940b0c5f8U, 0x40a0a7af408b3ab7U,
  0xc0c0c051c075cde9U, 0x4034e558c08ba601U, 0xc081f4f6c012d9d4U, 0xc06df76f409505b5U,
  0x4062148cc0a220a7U, 0xc0461cf040ab2874U, 0xc099aa0e40aea89fU, 0x3f3b44a03f3d8fd4U,
  0x40db15eb403737ccU, 0xbfbdfc7cc03fb31bU, 0x4044e669401d085bU, 0x3eec9da64063a5cfU,
  0x4014d984403cc179U, 0xc04bbd2a40a6dedaU, 0x3e3b16c6400e8f98U, 0xc0809bf2bf9a6678U,
  0xbe94911540373df7U, 0xbf8421e7406fba8fU, 0x3eb164bb409421e0U, 0x3ffbc10640355a31U,
  0x40e3c938c08d96ceU, 0x3f0e4422bf9cc1d9U, 0x4028a8cf40a7d04dU, 0x40861a3440c42e67U,
  0xbf187444bdc6c203U, 0x3cfbdf33be1a1a88U, 0x3d299acdbe245252U, 0xbe7ec0253e2f64cdU,
  0x3e3a6a38be436076U, 0x3e82d346bd4cbc0bU, 0xbde8f2663e308959U, 0x3d3c45763d6b9b22U,
  0xbdd2a7d2be0753ecU, 0xbf486cb8be1176afU, 0xbc019bfdbd4593b7U, 0xbd832f2e3dc78d4dU,
  0x3d516eb7bdab6ea3U, 0xbc062a13bf0f8ca2U, 0xbdc58f363dda060bU, 0xbdae9918bd98902cU,
  0x3e0eb6673c34b51aU, 0xbdef3f04be5174d0U, 0xbe1a7577bee09dc1U, 0x3d3cb29e3d76a2e0U,
